{
  "version": "1.0",
  "truncation": null,
  "padding": null,
  "added_tokens": [
    {
      "id": 0,
      "content": "[UNK]",
      "single_word": false,
      "lstrip": false,
      "rstrip": false,
      "normalized": false,
      "special": true
    },
    {
      "id": 1,
      "content": "[PAD]",
      "single_word": false,
      "lstrip": false,
      "rstrip": false,
      "normalized": false,
      "special": true
    },
    {
      "id": 2,
      "content": "<|endoftext|>",
      "single_word": false,
      "lstrip": false,
      "rstrip": false,
      "normalized": false,
      "special": true
    },
    {
      "id": 3,
      "content": "User:",
      "single_word": false,
      "lstrip": false,
      "rstrip": false,
      "normalized": false,
      "special": true
    },
    {
      "id": 4,
      "content": "Agastya:",
      "single_word": false,
      "lstrip": false,
      "rstrip": false,
      "normalized": false,
      "special": true
    }
  ],
  "normalizer": null,
  "pre_tokenizer": {
    "type": "ByteLevel",
    "add_prefix_space": false,
    "trim_offsets": true,
    "use_regex": true
  },
  "post_processor": null,
  "decoder": {
    "type": "ByteLevel",
    "add_prefix_space": true,
    "trim_offsets": true,
    "use_regex": true
  },
  "model": {
    "type": "BPE",
    "dropout": null,
    "unk_token": "[UNK]",
    "continuing_subword_prefix": null,
    "end_of_word_suffix": null,
    "fuse_unk": false,
    "byte_fallback": false,
    "ignore_merges": false,
    "vocab": {
      "[UNK]": 0,
      "[PAD]": 1,
      "<|endoftext|>": 2,
      "User:": 3,
      "Agastya:": 4,
      "!": 5,
      "#": 6,
      "'": 7,
      "(": 8,
      ")": 9,
      "+": 10,
      ",": 11,
      "-": 12,
      ".": 13,
      "0": 14,
      "1": 15,
      "2": 16,
      "3": 17,
      "4": 18,
      "5": 19,
      "6": 20,
      "7": 21,
      "8": 22,
      "9": 23,
      ":": 24,
      "<": 25,
      ">": 26,
      "?": 27,
      "A": 28,
      "B": 29,
      "C": 30,
      "D": 31,
      "E": 32,
      "F": 33,
      "G": 34,
      "H": 35,
      "I": 36,
      "J": 37,
      "K": 38,
      "L": 39,
      "M": 40,
      "N": 41,
      "O": 42,
      "P": 43,
      "Q": 44,
      "R": 45,
      "S": 46,
      "T": 47,
      "U": 48,
      "V": 49,
      "W": 50,
      "Y": 51,
      "^": 52,
      "a": 53,
      "b": 54,
      "c": 55,
      "d": 56,
      "e": 57,
      "f": 58,
      "g": 59,
      "h": 60,
      "i": 61,
      "j": 62,
      "k": 63,
      "l": 64,
      "m": 65,
      "n": 66,
      "o": 67,
      "p": 68,
      "q": 69,
      "r": 70,
      "s": 71,
      "t": 72,
      "u": 73,
      "v": 74,
      "w": 75,
      "x": 76,
      "y": 77,
      "z": 78,
      "|": 79,
      "Ċ": 80,
      "č": 81,
      "Ġ": 82,
      "in": 83,
      "Ġa": 84,
      "st": 85,
      "Ġt": 86,
      "nd": 87,
      "čĊ": 88,
      "of": 89,
      "se": 90,
      "le": 91,
      "Ġm": 92,
      "te": 93,
      "ou": 94,
      "Ġin": 95,
      "Ġi": 96,
      "he": 97,
      "or": 98,
      "Ġb": 99,
      "ti": 100,
      "ing": 101,
      "ast": 102,
      "gast": 103,
      "ya": 104,
      "gastya": 105,
      "you": 106,
      "xt": 107,
      "Ġyou": 108,
      "Agastya": 109,
      "end": 110,
      "<|": 111,
      "Use": 112,
      "|>": 113,
      "ofte": 114,
      "endofte": 115,
      "User": 116,
      "endoftext": 117,
      "Ġof": 118,
      ".<|": 119,
      "ar": 120,
      "lo": 121,
      "de": 122,
      "Ġc": 123,
      "ck": 124,
      "Ġto": 125,
      "ct": 126,
      "Ġs": 127,
      "ĠT": 128,
      "en": 129,
      "ed": 130,
      "at": 131,
      "Ġis": 132,
      "ple": 133,
      "an": 134,
      "Ġst": 135,
      "Ġand": 136,
      "mple": 137,
      "pr": 138,
      "ly": 139,
      "Ġme": 140,
      "Ġw": 141,
      "ru": 142,
      "ra": 143,
      "Ġthe": 144,
      "on": 145,
      "li": 146,
      "ca": 147,
      "it": 148,
      "va": 149,
      "Ġe": 150,
      "ack": 151,
      "ĠThe": 152,
      "Ġyour": 153,
      "Ġh": 154,
      "Ġpr": 155,
      "Ġstack": 156,
      "hat": 157,
      "ent": 158,
      "ow": 159,
      "ch": 160,
      "si": 161,
      "Ġo": 162,
      "Ġal": 163,
      "ment": 164,
      "Ġallo": 165,
      "ble": 166,
      "mor": 167,
      "Ġinsi": 168,
      "Ġimple": 169,
      "Ġmemor": 170,
      "Ġinside": 171,
      "Ġimplement": 172,
      "Ġmemory": 173,
      "Ġru": 174,
      "Ġco": 175,
      "ĠW": 176,
      "Ġf": 177,
      "ĠWhat": 178,
      "Ġar": 179,
      "ge": 180,
      "tion": 181,
      "ee": 182,
      "able": 183,
      "ray": 184,
      "Ġarray": 185,
      "es": 186,
      "Ġde": 187,
      "me": 188,
      "um": 189,
      "ning": 190,
      "nning": 191,
      "Ġrunning": 192,
      "ate": 193,
      "age": 194,
      "Ġman": 195,
      "Ġmanage": 196,
      "ue": 197,
      "Ġwor": 198,
      "lu": 199,
      "ri": 200,
      "ĠC": 201,
      "Ġsum": 202,
      "ime": 203,
      "Ġtime": 204,
      "mplex": 205,
      "ity": 206,
      "Ġcomplex": 207,
      "valu": 208,
      "Ġevalu": 209,
      "Ġevaluate": 210,
      "case": 211,
      "Ġworst": 212,
      "Ġcomplexity": 213,
      "Ġpro": 214,
      "ĠS": 215,
      "Ġ1": 216,
      "ve": 217,
      "Ġha": 218,
      "du": 219,
      "Ġu": 220,
      "Ġcle": 221,
      "Ġprodu": 222,
      "iz": 223,
      "sing": 224,
      "Ġk": 225,
      "cri": 226,
      "pt": 227,
      "cript": 228,
      "lly": 229,
      "miz": 230,
      "oo": 231,
      "ura": 232,
      "Ġop": 233,
      "ava": 234,
      "la": 235,
      "ect": 236,
      "ies": 237,
      "Ġmat": 238,
      "timiz": 239,
      "are": 240,
      "Ġstru": 241,
      "Ġfoo": 242,
      "eep": 243,
      "Ġclean": 244,
      "Ġoptimiz": 245,
      "Ġstruct": 246,
      "ject": 247,
      "ts": 248,
      "zing": 249,
      "inar": 250,
      "lock": 251,
      "ĠTo": 252,
      "ene": 253,
      "edi": 254,
      "cation": 255,
      "Ġpredi": 256,
      "Ġallocation": 257,
      "Ġkeep": 258,
      "Ġoptimized": 259,
      "Ġstructura": 260,
      "inary": 261,
      "Ġq": 262,
      "Using": 263,
      "bject": 264,
      "cl": 265,
      "fit": 266,
      "tpr": 267,
      "ws": 268,
      "ĠUsing": 269,
      "ints": 270,
      "ndar": 271,
      "oundar": 272,
      "ort": 273,
      "Ġblock": 274,
      "Ġbene": 275,
      "Ġboundar": 276,
      "tili": 277,
      "arch": 278,
      "ctable": 279,
      "ching": 280,
      "Ġobject": 281,
      "Ġallows": 282,
      "Ġarrays": 283,
      "Ġdecl": 284,
      "Ġutili": 285,
      "Ġmatching": 286,
      "Ġfootpr": 287,
      "Ġcleanly": 288,
      "Ġpredictable": 289,
      "Ġkeeps": 290,
      "Ġstructurally": 291,
      "Ġbenefit": 292,
      "Ġboundaries": 293,
      "Ġdeclare": 294,
      "Ġutilizing": 295,
      "Ġfootprints": 296,
      "fe": 297,
      "pla": 298,
      "xpla": 299,
      "Ġd": 300,
      "xplain": 301,
      "Ġhow": 302,
      "Ġse": 303,
      "Ġbinary": 304,
      "pe": 305,
      "Ġan": 306,
      "Ġsearch": 307,
      "Ġli": 308,
      "Ġat": 309,
      "Ġ2": 310,
      "Ġn": 311,
      "Ġ6": 312,
      "Ġque": 313,
      "ay": 314,
      "Ġtr": 315,
      "ul": 316,
      "Ġ5": 317,
      "Ġ3": 318,
      "ĠH": 319,
      "Ġ4": 320,
      "Ġ9": 321,
      "sh": 322,
      "pli": 323,
      "Ġmul": 324,
      "Ġby": 325,
      "tipli": 326,
      "Ġevaluates": 327,
      "Ġproduct": 328,
      "Ġmultipli": 329,
      "Ġmultiplied": 330,
      "Ġ8": 331,
      "Ġ7": 332,
      ").<|": 333,
      "ked": 334,
      "lin": 335,
      "ĠO": 336,
      "Ġlin": 337,
      "Ġtable": 338,
      "Ġevaluated": 339,
      "Ġhash": 340,
      "Ġlist": 341,
      "Ġqueue": 342,
      "Ġtree": 343,
      "Ġlinked": 344,
      "ld": 345,
      "ub": 346,
      "ui": 347,
      "th": 348,
      "ĠHow": 349,
      "ĠJ": 350,
      "Ġj": 351,
      "Ġfor": 352,
      "Ġlo": 353,
      "if": 354,
      "rs": 355,
      "yth": 356,
      "Ġwe": 357,
      "++": 358,
      "Script": 359,
      "wif": 360,
      "ĠR": 361,
      "ould": 362,
      "Ġcode": 363,
      "ĠCan": 364,
      "ĠCould": 365,
      "Ġdo": 366,
      "ĠJava": 367,
      "Ġjava": 368,
      "ython": 369,
      "wift": 370,
      "uick": 371,
      "ction": 372,
      "Ġsort": 373,
      "ĠSort": 374,
      "cti": 375,
      "ndle": 376,
      "lope": 377,
      "Ġexplain": 378,
      "Ġdeve": 379,
      "Ġhandle": 380,
      "ctive": 381,
      "lopers": 382,
      "Ġdevelopers": 383,
      "Ġg": 384,
      "re": 385,
      "Explain": 386,
      "afe": 387,
      "ffe": 388,
      "how": 389,
      "ĠP": 390,
      "ĠExplain": 391,
      "Ġsafe": 392,
      "Ġshow": 393,
      "Ġway": 394,
      "Ġeffe": 395,
      "Ġproduction": 396,
      "ctively": 397,
      "Ġsafely": 398,
      "Ġeffectively": 399,
      "ust": 400,
      "ĠB": 401,
      "Ġp": 402,
      "Ġte": 403,
      "rge": 404,
      "ubble": 405,
      "Ġlog": 406,
      "ll": 407,
      "pes": 408,
      "ĠI": 409,
      "Ġwhat": 410,
      "ĠG": 411,
      "ypes": 412,
      "Ġtypes": 413,
      "QL": 414,
      "by": 415,
      "ce": 416,
      "ql": 417,
      "script": 418,
      "ype": 419,
      "Ġswift": 420,
      "Ġsql": 421,
      "ĠType": 422,
      "Ġrust": 423,
      "Ġruby": 424,
      "ĠSwift": 425,
      "ĠSQL": 426,
      "uby": 427,
      "ĠRust": 428,
      "ĠRuby": 429,
      "ĠJavaScript": 430,
      "Ġjavascript": 431,
      "Ġgo": 432,
      "ĠPython": 433,
      "Ġpython": 434,
      "ĠGo": 435,
      "Ġtypescript": 436,
      "ĠTypeScript": 437,
      "Quick": 438,
      "ĠQuick": 439,
      "Ġquick": 440,
      "al": 441,
      "Ġ10": 442,
      "Ġtell": 443,
      "ĠM": 444,
      "!<|": 445,
      "ase": 446,
      "gh": 447,
      "ho": 448,
      "Ġagastya": 449,
      "Ġbu": 450,
      "Ġhe": 451,
      "Ġare": 452,
      "earch": 453,
      "erge": 454,
      "Ġbubble": 455,
      "log": 456,
      "Ġmerge": 457,
      "ĠSearch": 458,
      "ĠBinary": 459,
      "ĠBubble": 460,
      "ĠMerge": 461,
      "er": 462,
      "ke": 463,
      "Ġon": 464,
      "Ġam": 465,
      "Ġcan": 466,
      "righ": 467,
      "rea": 468,
      "right": 469,
      "Ġ12": 470,
      "Ġ11": 471,
      "ĠA": 472,
      "Ġ13": 473,
      "ation": 474,
      "ces": 475,
      "dy": 476,
      "day": 477,
      "lp": 478,
      "ms": 479,
      "ro": 480,
      "ur": 481,
      "ĠY": 482,
      "Ġen": 483,
      "Ġright": 484,
      "Ġmin": 485,
      "Ġbui": 486,
      "ard": 487,
      "Ġtoday": 488,
      "Ġso": 489,
      "Ġsy": 490,
      "Ġfi": 491,
      "Ġproces": 492,
      "Ġwho": 493,
      "Ġhelp": 494,
      "Ġ14": 495,
      "Ġ15": 496,
      "++,": 497,
      "ĠHe": 498,
      "Ġ16": 499,
      "Ġ17": 500,
      "'t": 501,
      "Do": 502,
      "as": 503,
      "and": 504,
      "ddy": 505,
      "ic": 506,
      "ite": 507,
      "ion": 508,
      "ice": 509,
      "ken": 510,
      "now": 511,
      "ss": 512,
      "sw": 513,
      "way": 514,
      "Ġou": 515,
      "Ġple": 516,
      "Ġla": 517,
      "ĠDo": 518,
      "ste": 519,
      "stion": 520,
      "lease": 521,
      "Ġmo": 522,
      "Ġmy": 523,
      "Ġbe": 524,
      "Ġcre": 525,
      "Ġtoken": 526,
      "ence": 527,
      "Ġwas": 528,
      "cal": 529,
      "cally": 530,
      "Ġho": 531,
      "ated": 532,
      "ric": 533,
      "Ġclear": 534,
      "Ġknow": 535,
      "Ġday": 536,
      "Ġansw": 537,
      "Ġne": 538,
      "Ġnow": 539,
      "Ġquestion": 540,
      "ĠPlease": 541,
      "Ġquickly": 542,
      "Ġbut": 543,
      "Ġbuddy": 544,
      "ĠYo": 545,
      "Ġsyste": 546,
      "Ġfile": 547,
      "ĠHey": 548,
      "Ġout": 549,
      "Ġplease": 550,
      "Ġcreated": 551,
      "Ġanswer": 552,
      "Ġ40": 553,
      "Ġ28": 554,
      "Ġ96": 555,
      "Ġ24": 556,
      "Ġ18": 557,
      "Ġ26": 558,
      "Ġ19": 559,
      "Ġ81": 560,
      "Ġ59": 561,
      "Ġ57": 562,
      "Ġ69": 563,
      "Ġ27": 564,
      "Ġ32": 565,
      "Ġ62": 566,
      "Ġ68": 567,
      "Ġ50": 568,
      "Ġ97": 569,
      "Ġ23": 570,
      "Ġ65": 571,
      "Ġ22": 572,
      "Ġ42": 573,
      "Ġ63": 574,
      "Ġ64": 575,
      "Ġ66": 576,
      "Ġ67": 577,
      "Ġ72": 578,
      "Ġ95": 579,
      "Ġ79": 580,
      "Ġ48": 581,
      "Ġ84": 582,
      "Ġ25": 583,
      "Ġ91": 584,
      "Ġ73": 585,
      "Ġ61": 586,
      "Ġ34": 587,
      "Ġ88": 588,
      "Ġ58": 589,
      "Ġ31": 590,
      "Ġ60": 591,
      "Ġ43": 592,
      "Ġ55": 593,
      "Ġ56": 594,
      "Ġ37": 595,
      "Ġ44": 596,
      "Ġ100": 597,
      "Ġ20": 598,
      "Ġ38": 599,
      "Ġ93": 600,
      "Ġ36": 601,
      "Ġ71": 602,
      "Ġ54": 603,
      "Ġ46": 604,
      "Ġ30": 605,
      "Ġ33": 606,
      "Ġ89": 607,
      "Ġ76": 608,
      "Ġ77": 609,
      "Ġ49": 610,
      "Ġ92": 611,
      "Ġ87": 612,
      "Ġ78": 613,
      "Ġ39": 614,
      "Ġ83": 615,
      "Ġ53": 616,
      "Ġ45": 617,
      "Ġ75": 618,
      "Ġ21": 619,
      "Ġ86": 620,
      "Ġ47": 621,
      "'s": 622,
      "No": 623,
      "Tor": 624,
      "av": 625,
      "bb": 626,
      "dv": 627,
      "ep": 628,
      "for": 629,
      "gra": 630,
      "im": 631,
      "ir": 632,
      "ient": 633,
      "ive": 634,
      "ically": 635,
      "ks": 636,
      "king": 637,
      "lt": 638,
      "ma": 639,
      "mm": 640,
      "min": 641,
      "ns": 642,
      "oke": 643,
      "sfor": 644,
      "ute": 645,
      "wor": 646,
      "ware": 647,
      "yTor": 648,
      "zed": 649,
      "ĠF": 650,
      "Ġra": 651,
      "ĠNo": 652,
      "Ġadv": 653,
      "Ġtho": 654,
      "Ġma": 655,
      "ten": 656,
      "her": 657,
      "orite": 658,
      "Ġback": 659,
      "Ġbrea": 660,
      "tire": 661,
      "yout": 662,
      "del": 663,
      "Ġcon": 664,
      "Ġchat": 665,
      "Ġcust": 666,
      "Ġcur": 667,
      "Ġsc": 668,
      "Ġspe": 669,
      "ata": 670,
      "ather": 671,
      "aning": 672,
      "ansfor": 673,
      "Ġstrea": 674,
      "Ġmeaning": 675,
      "ith": 676,
      "Ġhum": 677,
      "Ġhard": 678,
      "own": 679,
      "Ġfav": 680,
      "tions": 681,
      "Ġdeep": 682,
      "mer": 683,
      "Ġup": 684,
      "Ġusing": 685,
      "ural": 686,
      "Ġfood": 687,
      "Ġdon": 688,
      "Ġdata": 689,
      "Ġdown": 690,
      "Ġlife": 691,
      "Ġlike": 692,
      "Ġ29": 693,
      "Ġtransfor": 694,
      "Ġ41": 695,
      "Ġ94": 696,
      "ĠJust": 697,
      "Ġjoke": 698,
      "Ġloo": 699,
      "Ġloss": 700,
      "Ġlocal": 701,
      "Ġweather": 702,
      "Ġgra": 703,
      "ĠPyTor": 704,
      "Ġtext": 705,
      "ĠMy": 706,
      "Ġhere": 707,
      "ations": 708,
      "ures": 709,
      "Ġentire": 710,
      "Ġmind": 711,
      "Ġbuild": 712,
      "Ġbuilt": 713,
      "Ġsome": 714,
      "Ġprocess": 715,
      "Ġprocessing": 716,
      "ways": 717,
      "Ġlayout": 718,
      "Ġmodel": 719,
      "Ġhobb": 720,
      "Ġsystems": 721,
      "Ġfiles": 722,
      "imum": 723,
      "minal": 724,
      "Ġraw": 725,
      "Ġadvice": 726,
      "Ġthose": 727,
      "Ġbreaking": 728,
      "Ġcusto": 729,
      "Ġhuman": 730,
      "Ġhardware": 731,
      "Ġfavorite": 732,
      "Ġtransformer": 733,
      "ĠPyTorch": 734,
      "Ġentirely": 735,
      "Ġhobbies": 736,
      "Ġ90": 737,
      "Ġ82": 738,
      "Ġ51": 739,
      "Ġ99": 740,
      "Ġ80": 741,
      "Ġ74": 742,
      "Ġ35": 743,
      "Ġ98": 744,
      "Ġ52": 745,
      "Ġ85": 746,
      "Ġ70": 747,
      "Ġgive": 748,
      "00": 749,
      "#!<|": 750,
      "?<|": 751,
      "AM": 752,
      "Is": 753,
      "Keep": 754,
      "PU": 755,
      "PIs": 756,
      "RAM": 757,
      "VRAM": 758,
      "am": 759,
      "ain": 760,
      "aly": 761,
      "ali": 762,
      "ash": 763,
      "ake": 764,
      "bo": 765,
      "bs": 766,
      "bal": 767,
      "bient": 768,
      "cu": 769,
      "cent": 770,
      "cif": 771,
      "ding": 772,
      "dth": 773,
      "dation": 774,
      "dient": 775,
      "eg": 776,
      "eca": 777,
      "ets": 778,
      "ers": 779,
      "ful": 780,
      "fic": 781,
      "gor": 782,
      "ging": 783,
      "git": 784,
      "gence": 785,
      "hy": 786,
      "hing": 787,
      "hic": 788,
      "iti": 789,
      "ill": 790,
      "ial": 791,
      "igh": 792,
      "ience": 793,
      "idth": 794,
      "igit": 795,
      "jo": 796,
      "kst": 797,
      "lf": 798,
      "ls": 799,
      "lar": 800,
      "lli": 801,
      "lve": 802,
      "lways": 803,
      "mo": 804,
      "mp": 805,
      "ming": 806,
      "mme": 807,
      "moo": 808,
      "nt": 809,
      "nction": 810,
      "nam": 811,
      "ople": 812,
      "olu": 813,
      "ominal": 814,
      "ols": 815,
      "pp": 816,
      "ps": 817,
      "py": 818,
      "phe": 819,
      "ption": 820,
      "phic": 821,
      "qu": 822,
      "rent": 823,
      "res": 824,
      "ryth": 825,
      "rce": 826,
      "rence": 827,
      "rns": 828,
      "rminal": 829,
      "su": 830,
      "sse": 831,
      "sou": 832,
      "spe": 833,
      "scent": 834,
      "sphe": 835,
      "to": 836,
      "tor": 837,
      "ting": 838,
      "tast": 839,
      "tric": 840,
      "twor": 841,
      "use": 842,
      "uch": 843,
      "unction": 844,
      "utor": 845,
      "ves": 846,
      "vir": 847,
      "width": 848,
      "xce": 849,
      "ximum": 850,
      "yers": 851,
      "ynam": 852,
      "Ġle": 853,
      "Ġor": 854,
      "ĠAgastya": 855,
      "Ġva": 856,
      "Ġge": 857,
      "Ġpe": 858,
      "Ġrea": 859,
      "ĠKeep": 860,
      "ĠVRAM": 861,
      "inding": 862,
      "Ġas": 863,
      "Ġactive": 864,
      "Ġaway": 865,
      "Ġabs": 866,
      "Ġautor": 867,
      "sting": 868,
      "stent": 869,
      "stand": 870,
      "Ġthing": 871,
      "nder": 872,
      "sely": 873,
      "self": 874,
      "lect": 875,
      "Ġmon": 876,
      "Ġmuch": 877,
      "tep": 878,
      "tera": 879,
      "telli": 880,
      "terns": 881,
      "Ġinfe": 882,
      "Ġinten": 883,
      "Ġiniti": 884,
      "Ġinto": 885,
      "Ġintelli": 886,
      "Ġif": 887,
      "Ġit": 888,
      "Ġitera": 889,
      "hen": 890,
      "hesi": 891,
      "hema": 892,
      "ors": 893,
      "Ġbre": 894,
      "Ġbright": 895,
      "Ġband": 896,
      "tical": 897,
      "tific": 898,
      "arm": 899,
      "arse": 900,
      "arning": 901,
      "lopes": 902,
      "lobal": 903,
      "losely": 904,
      "Ġclock": 905,
      "Ġcal": 906,
      "Ġcro": 907,
      "Ġcard": 908,
      "Ġclosely": 909,
      "Ġtools": 910,
      "ctures": 911,
      "Ġscript": 912,
      "Ġsub": 913,
      "Ġsust": 914,
      "Ġsma": 915,
      "Ġsmoo": 916,
      "Ġslopes": 917,
      "ĠTake": 918,
      "ath": 919,
      "atural": 920,
      "atterns": 921,
      "ance": 922,
      "anging": 923,
      "antast": 924,
      "Ġmetric": 925,
      "Ġwri": 926,
      "Ġwith": 927,
      "Ġwill": 928,
      "Ġwhen": 929,
      "Ġwarm": 930,
      "rate": 931,
      "Ġthey": 932,
      "onsi": 933,
      "onment": 934,
      "lite": 935,
      "lidation": 936,
      "itor": 937,
      "Ġeve": 938,
      "Ġequ": 939,
      "Ġexce": 940,
      "Ġelect": 941,
      "Ġelite": 942,
      "ackets": 943,
      "ĠThere": 944,
      "Ġhigh": 945,
      "Ġhanging": 946,
      "entro": 947,
      "chite": 948,
      "sive": 949,
      "Ġalways": 950,
      "Ġalgor": 951,
      "Ġcomm": 952,
      "Ġcomp": 953,
      "ĠWhy": 954,
      "Ġfro": 955,
      "Ġfunction": 956,
      "Ġfinding": 957,
      "Ġartific": 958,
      "Ġarchite": 959,
      "Ġdescent": 960,
      "Ġworld": 961,
      "Ġworks": 962,
      "Ġworkst": 963,
      "lutions": 964,
      "rix": 965,
      "ĠConsi": 966,
      "Ġproject": 967,
      "Ġprogra": 968,
      "ĠStep": 969,
      "vers": 970,
      "Ġhas": 971,
      "Ġhave": 972,
      "dular": 973,
      "Ġunder": 974,
      "izer": 975,
      "mized": 976,
      "Ġopen": 977,
      "lations": 978,
      "lasse": 979,
      "ectly": 980,
      "Ġmathema": 981,
      "Ġmatrix": 982,
      "Ġoptimizing": 983,
      "Ġstructures": 984,
      "enerate": 985,
      "Ġprediction": 986,
      "Ġstructural": 987,
      "Ġdir": 988,
      "Ġdash": 989,
      "Ġdigit": 990,
      "Ġdynam": 991,
      "Ġsens": 992,
      "Ġanaly": 993,
      "Ġatten": 994,
      "Ġatmo": 995,
      "Ġnice": 996,
      "Ġnominal": 997,
      "Ġnatural": 998,
      "thly": 999,
      "Ġlove": 1000,
      "Ġlocally": 1001,
      "Ġwear": 1002,
      "Ġglobal": 1003,
      "Ġglasse": 1004,
      "Ġgenerate": 1005,
      "reen": 1006,
      "ĠPro": 1007,
      "ĠBal": 1008,
      "ĠBeca": 1009,
      "Ġparse": 1010,
      "Ġpatterns": 1011,
      "Ġpackets": 1012,
      "Ġterminal": 1013,
      "Ġtesting": 1014,
      "ĠGPU": 1015,
      "Ġone": 1016,
      "Ġambient": 1017,
      "ĠAI": 1018,
      "ĠAll": 1019,
      "ĠAPIs": 1020,
      "ĠAlways": 1021,
      "ĠYou": 1022,
      "Ġenjo": 1023,
      "Ġenvir": 1024,
      "Ġminute": 1025,
      "Ġminimum": 1026,
      "Ġsolve": 1027,
      "Ġsolutions": 1028,
      "Ġsynt": 1029,
      "Ġfive": 1030,
      "Ġhelping": 1031,
      "Ġhelpful": 1032,
      "ands": 1033,
      "Ġlayers": 1034,
      "Ġmodular": 1035,
      "Ġmyself": 1036,
      "Ġbeen": 1037,
      "Ġtokenizer": 1038,
      "Ġhold": 1039,
      "ricity": 1040,
      "Ġclearly": 1041,
      "Ġneed": 1042,
      "Ġneural": 1043,
      "Ġnetwor": 1044,
      "Ġsystem": 1045,
      "gramm": 1046,
      "uter": 1047,
      "word": 1048,
      "ĠFor": 1049,
      "ĠFantast": 1050,
      "ĠNot": 1051,
      "Ġmapp": 1052,
      "Ġmaximum": 1053,
      "Ġbackend": 1054,
      "Ġconsu": 1055,
      "Ġconvers": 1056,
      "Ġchatting": 1057,
      "Ġcurrent": 1058,
      "Ġcurves": 1059,
      "Ġscience": 1060,
      "Ġscreen": 1061,
      "Ġspeed": 1062,
      "Ġspecif": 1063,
      "Ġstreams": 1064,
      "Ġstreaming": 1065,
      "ithms": 1066,
      "Ġlooks": 1067,
      "Ġloops": 1068,
      "Ġgradient": 1069,
      "Ġgraphic": 1070,
      "Ġbuilds": 1071,
      "Ġbuilding": 1072,
      "Ġcustom": 1073,
      "Ġcustomized": 1074,
      "alized": 1075,
      "board": 1076,
      "culations": 1077,
      "egres": 1078,
      "mmers": 1079,
      "olute": 1080,
      "ptional": 1081,
      "rything": 1082,
      "source": 1083,
      "speed": 1084,
      "spheric": 1085,
      "Ġlearning": 1086,
      "Ġvalidation": 1087,
      "Ġget": 1088,
      "Ġpeople": 1089,
      "Ġready": 1090,
      "Ġabsolute": 1091,
      "Ġautoregres": 1092,
      "Ġthings": 1093,
      "Ġmonitor": 1094,
      "Ġinference": 1095,
      "Ġintense": 1096,
      "Ġinitialized": 1097,
      "Ġintelligence": 1098,
      "Ġiteration": 1099,
      "hesized": 1100,
      "Ġbreath": 1101,
      "Ġbandwidth": 1102,
      "Ġcalculations": 1103,
      "Ġcross": 1104,
      "Ġscripts": 1105,
      "Ġsustain": 1106,
      "Ġsmall": 1107,
      "Ġsmoothly": 1108,
      "Ġmetrics": 1109,
      "Ġwrite": 1110,
      "Ġeverything": 1111,
      "Ġequations": 1112,
      "Ġexceptional": 1113,
      "Ġelectricity": 1114,
      "entropy": 1115,
      "Ġalgorithms": 1116,
      "Ġcommands": 1117,
      "Ġcomputer": 1118,
      "Ġfrom": 1119,
      "Ġartificial": 1120,
      "Ġarchitectures": 1121,
      "Ġworkstation": 1122,
      "ĠConsistent": 1123,
      "Ġprogrammers": 1124,
      "Ġunderstand": 1125,
      "Ġmathematical": 1126,
      "Ġpredictions": 1127,
      "Ġdirectly": 1128,
      "Ġdashboard": 1129,
      "Ġdigital": 1130,
      "Ġdynamically": 1131,
      "Ġsensors": 1132,
      "Ġanalyzing": 1133,
      "Ġattention": 1134,
      "Ġatmospheric": 1135,
      "Ġglasses": 1136,
      "ĠProgramm": 1137,
      "ĠBalance": 1138,
      "ĠBecause": 1139,
      "Ġenjoy": 1140,
      "Ġenvironment": 1141,
      "Ġminutes": 1142,
      "Ġsynthesized": 1143,
      "Ġnetwork": 1144,
      "ĠFantastic": 1145,
      "Ġmapping": 1146,
      "Ġconsume": 1147,
      "Ġconversations": 1148,
      "Ġspecifically": 1149,
      "Ġgraphics": 1150,
      "Ġautoregressive": 1151,
      "ĠProgramming": 1152,
      "60": 1153,
      "80": 1154,
      "40": 1155,
      "20": 1156,
      "32": 1157,
      "68": 1158,
      "12": 1159,
      "50": 1160,
      "Ġ124": 1161,
      "Ġ110": 1162,
      "Ġ115": 1163,
      "Ġ117": 1164,
      "Ġ118": 1165,
      "96": 1166,
      "36": 1167,
      "Ġ102": 1168,
      "Ġ106": 1169,
      "Ġ123": 1170,
      "56": 1171,
      "72": 1172,
      "Ġ101": 1173,
      "Ġ109": 1174,
      "04": 1175,
      "64": 1176,
      "Ġ108": 1177,
      "Ġ113": 1178,
      "ell": 1179,
      "ĠTell": 1180,
      "ĠWho": 1181,
      "ĠGive": 1182,
      "Ġ107": 1183,
      "Ġ120": 1184,
      "Ġ111": 1185,
      "Ġ112": 1186,
      "Ġ119": 1187,
      "ĠAre": 1188,
      "ĠHelp": 1189,
      "30": 1190,
      "84": 1191,
      "Ġ103": 1192,
      "Ġ104": 1193,
      "Ġ121": 1194,
      "Ġ125": 1195,
      "Ġ126": 1196,
      "Ġ127": 1197,
      "Ġ130": 1198,
      "08": 1199,
      "25": 1200,
      "52": 1201,
      "88": 1202,
      "Ġ144": 1203,
      "Ġ156": 1204,
      "14": 1205,
      "24": 1206,
      "Ġ151": 1207,
      "Ġ157": 1208,
      "10": 1209,
      "87": 1210,
      "Ġ105": 1211,
      "Ġ132": 1212,
      "Ġ133": 1213,
      "Ġ137": 1214,
      "Ġ140": 1215,
      "Ġ142": 1216,
      "Ġ148": 1217,
      "90": 1218,
      "Ġ131": 1219,
      "Ġ139": 1220,
      "Ġ147": 1221,
      "Ġ160": 1222,
      "Ġ164": 1223,
      "18": 1224,
      "35": 1225,
      "54": 1226,
      "70": 1227,
      "75": 1228,
      "92": 1229,
      "Ġ122": 1230,
      "Ġ114": 1231,
      "Ġ135": 1232,
      "Ġ136": 1233,
      "Ġ138": 1234,
      "Ġ149": 1235,
      "Ġ153": 1236,
      "Ġ178": 1237,
      "16": 1238,
      "22": 1239,
      "34": 1240,
      "44": 1241,
      "48": 1242,
      "76": 1243,
      "94": 1244,
      "Ġ129": 1245,
      "Ġ141": 1246,
      "Ġ154": 1247,
      "Ġ159": 1248,
      "Ġ186": 1249,
      "46": 1250,
      "51": 1251,
      "65": 1252,
      "Ġ128": 1253,
      "Ġ134": 1254,
      "Ġ143": 1255,
      "Ġ150": 1256,
      "Ġ158": 1257,
      "Ġ166": 1258,
      "Ġ168": 1259,
      "Ġ169": 1260,
      "Ġ173": 1261,
      "Ġ175": 1262,
      "17": 1263,
      "26": 1264,
      "49": 1265,
      "66": 1266,
      "85": 1267,
      "Ġ145": 1268,
      "Ġ180": 1269,
      "02": 1270,
      "31": 1271,
      "38": 1272,
      "42": 1273,
      "45": 1274,
      "53": 1275,
      "58": 1276,
      "78": 1277,
      "Ġ116": 1278,
      "Ġ146": 1279,
      "Ġ155": 1280,
      "Ġ167": 1281,
      "Ġ170": 1282,
      "Ġ172": 1283,
      "Ġ176": 1284,
      "Ġ177": 1285,
      "Ġ183": 1286,
      "11": 1287,
      "15": 1288,
      "19": 1289,
      "37": 1290,
      "43": 1291,
      "71": 1292,
      "Ġ152": 1293,
      "Ġ1512": 1294,
      "Ġ171": 1295,
      "Ġ960": 1296,
      "Ġ240": 1297,
      "Ġ182": 1298,
      "Ġ192": 1299,
      "06": 1300,
      "27": 1301,
      "28": 1302,
      "47": 1303,
      "55": 1304,
      "57": 1305,
      "62": 1306,
      "73": 1307,
      "81": 1308,
      "95": 1309,
      "Ġ161": 1310,
      "Ġ163": 1311,
      "Ġ165": 1312,
      "Ġ181": 1313,
      "Ġ184": 1314,
      "Ġ188": 1315,
      "Ġ1904": 1316,
      "Ġ324": 1317,
      "Ġ4320": 1318,
      "Ġ924": 1319,
      "Ġ450": 1320,
      "Ġ2112": 1321,
      "Ġ900": 1322,
      "Ġ990": 1323,
      "Ġ1152": 1324,
      "01": 1325,
      "13": 1326,
      "21": 1327,
      "29": 1328,
      "59": 1329,
      "67": 1330,
      "69": 1331,
      "77": 1332,
      "82": 1333,
      "83": 1334,
      "89": 1335,
      "93": 1336,
      "98": 1337,
      "99": 1338,
      "Ġ1080": 1339,
      "Ġ1200": 1340,
      "Ġ1260": 1341,
      "Ġ1232": 1342,
      "Ġ1296": 1343,
      "Ġ1140": 1344,
      "Ġ1360": 1345,
      "Ġ1380": 1346,
      "Ġ1320": 1347,
      "Ġ1400": 1348,
      "Ġ1440": 1349,
      "Ġ1568": 1350,
      "Ġ1584": 1351,
      "Ġ1632": 1352,
      "Ġ174": 1353,
      "Ġ2880": 1354,
      "Ġ2484": 1355,
      "Ġ189": 1356,
      "Ġ1824": 1357,
      "Ġ1848": 1358,
      "Ġ2604": 1359,
      "Ġ194": 1360,
      "Ġ196": 1361,
      "Ġ1932": 1362,
      "Ġ1953": 1363,
      "Ġ576": 1364,
      "Ġ693": 1365,
      "Ġ2754": 1366,
      "Ġ5040": 1367,
      "Ġ230": 1368,
      "Ġ2352": 1369,
      "Ġ2280": 1370,
      "Ġ2240": 1371,
      "Ġ6336": 1372,
      "Ġ648": 1373,
      "Ġ6600": 1374,
      "Ġ480": 1375,
      "Ġ840": 1376,
      "Ġ612": 1377,
      "Ġ342": 1378,
      "Ġ3168": 1379,
      "Ġ4400": 1380,
      "Ġ200": 1381,
      "Ġ2024": 1382,
      "Ġ368": 1383,
      "Ġ3600": 1384,
      "Ġ3040": 1385,
      "Ġ330": 1386,
      "Ġ3960": 1387,
      "Ġ456": 1388,
      "Ġ1248": 1389,
      "Ġ1155": 1390,
      "Ġ1230": 1391,
      "Ġ1092": 1392,
      "Ġ1782": 1393,
      "Ġ1598": 1394,
      "Ġ1863": 1395,
      "09": 1396,
      "23": 1397,
      "39": 1398,
      "61": 1399,
      "74": 1400,
      "Ġ1020": 1401,
      "Ġ1300": 1402,
      "Ġ1332": 1403,
      "Ġ1450": 1404,
      "Ġ1456": 1405,
      "Ġ1500": 1406,
      "Ġ1560": 1407,
      "Ġ162": 1408,
      "Ġ1680": 1409,
      "Ġ1640": 1410,
      "Ġ1620": 1411,
      "Ġ1664": 1412,
      "Ġ1675": 1413,
      "Ġ1617": 1414,
      "Ġ1700": 1415,
      "Ġ1760": 1416,
      "Ġ1740": 1417,
      "Ġ1794": 1418,
      "Ġ4032": 1419,
      "Ġ4004": 1420,
      "Ġ2860": 1421,
      "Ġ2812": 1422,
      "Ġ2856": 1423,
      "Ġ2808": 1424,
      "Ġ2835": 1425,
      "Ġ2871": 1426,
      "Ġ2881": 1427,
      "Ġ966": 1428,
      "Ġ2400": 1429,
      "Ġ2496": 1430,
      "Ġ2464": 1431,
      "Ġ2430": 1432,
      "Ġ2494": 1433,
      "Ġ2442": 1434,
      "Ġ2457": 1435,
      "Ġ1860": 1436,
      "Ġ1820": 1437,
      "Ġ1836": 1438,
      "Ġ1872": 1439,
      "Ġ264": 1440,
      "Ġ2600": 1441,
      "Ġ2688": 1442,
      "Ġ2646": 1443,
      "Ġ190": 1444,
      "Ġ195": 1445,
      "Ġ1900": 1446,
      "Ġ1976": 1447,
      "Ġ1943": 1448,
      "Ġ5796": 1449,
      "Ġ270": 1450,
      "Ġ272": 1451,
      "Ġ2788": 1452,
      "Ġ2714": 1453,
      "Ġ3268": 1454,
      "Ġ3264": 1455,
      "Ġ3290": 1456,
      "Ġ3234": 1457,
      "Ġ6264": 1458,
      "Ġ504": 1459,
      "Ġ9702": 1460,
      "Ġ2325": 1461,
      "Ġ2314": 1462,
      "Ġ2310": 1463,
      "Ġ2387": 1464,
      "Ġ2376": 1465,
      "Ġ2200": 1466,
      "Ġ2236": 1467,
      "Ġ2256": 1468,
      "Ġ2294": 1469,
      "Ġ420": 1470,
      "Ġ4200": 1471,
      "Ġ6300": 1472,
      "Ġ644": 1473,
      "Ġ6417": 1474,
      "Ġ665": 1475,
      "Ġ672": 1476,
      "Ġ720": 1477,
      "Ġ7968": 1478,
      "Ġ4800": 1479,
      "Ġ845": 1480,
      "Ġ2555": 1481,
      "Ġ736": 1482,
      "Ġ610": 1483,
      "Ġ344": 1484,
      "Ġ884": 1485,
      "Ġ585": 1486,
      "Ġ588": 1487,
      "Ġ3136": 1488,
      "Ġ600": 1489,
      "Ġ608": 1490,
      "Ġ6035": 1491,
      "Ġ432": 1492,
      "Ġ434": 1493,
      "Ġ552": 1494,
      "Ġ5500": 1495,
      "Ġ5544": 1496,
      "Ġ5551": 1497,
      "Ġ378": 1498,
      "Ġ3700": 1499,
      "Ġ3760": 1500,
      "Ġ448": 1501,
      "Ġ4450": 1502,
      "Ġ4416": 1503,
      "Ġ4485": 1504,
      "Ġ4473": 1505,
      "Ġ1000": 1506,
      "Ġ2000": 1507,
      "Ġ2046": 1508,
      "Ġ2058": 1509,
      "Ġ384": 1510,
      "Ġ385": 1511,
      "Ġ3888": 1512,
      "Ġ3827": 1513,
      "Ġ930": 1514,
      "Ġ360": 1515,
      "Ġ3680": 1516,
      "Ġ712": 1517,
      "Ġ546": 1518,
      "Ġ5460": 1519,
      "Ġ460": 1520,
      "Ġ468": 1521,
      "Ġ4650": 1522,
      "Ġ308": 1523,
      "Ġ3080": 1524,
      "Ġ3096": 1525,
      "Ġ3069": 1526,
      "Ġ3360": 1527,
      "Ġ3366": 1528,
      "Ġ896": 1529,
      "Ġ7735": 1530,
      "Ġ392": 1531,
      "Ġ396": 1532,
      "Ġ8330": 1533,
      "Ġ455": 1534,
      "Ġ4500": 1535,
      "Ġ754": 1536,
      "Ġ210": 1537,
      "Ġ216": 1538,
      "Ġ2100": 1539,
      "Ġ2160": 1540,
      "Ġ4752": 1541,
      "Ġ2940": 1542,
      "Ġ4154": 1543,
      "Ġ946": 1544,
      "Ġ828": 1545,
      "Ġ5120": 1546,
      "Ġ5184": 1547,
      "Ġ800": 1548,
      "Ġ3550": 1549,
      "Ġ986": 1550,
      "Ġ5247": 1551,
      "Ġ1242": 1552,
      "Ġ1105": 1553,
      "Ġ1156": 1554,
      "Ġ1188": 1555,
      "Ġ1095": 1556,
      "Ġ1134": 1557,
      "Ġ1197": 1558,
      "Ġ1215": 1559,
      "Ġ1275": 1560,
      "Ġ1406": 1561,
      "Ġ1428": 1562,
      "Ġ1386": 1563,
      "Ġ1786": 1564,
      "Ġ1755": 1565,
      "Ġ1805": 1566,
      "Ġ1769": 1567,
      "Ġ2409": 1568,
      "05": 1569,
      "07": 1570,
      "79": 1571,
      "91": 1572,
      "97": 1573,
      "Ġ1032": 1574,
      "Ġ1012": 1575,
      "Ġ1036": 1576,
      "Ġ1056": 1577,
      "Ġ1240": 1578,
      "Ġ1250": 1579,
      "Ġ1272": 1580,
      "Ġ1264": 1581,
      "Ġ1225": 1582,
      "Ġ1288": 1583,
      "Ġ1224": 1584,
      "Ġ1287": 1585,
      "Ġ1290": 1586,
      "Ġ1292": 1587,
      "Ġ1100": 1588,
      "Ġ1160": 1589,
      "Ġ1120": 1590,
      "Ġ1196": 1591,
      "Ġ1166": 1592,
      "Ġ1368": 1593,
      "Ġ1312": 1594,
      "Ġ1350": 1595,
      "Ġ1372": 1596,
      "Ġ1364": 1597,
      "Ġ1344": 1598,
      "Ġ1480": 1599,
      "Ġ1472": 1600,
      "Ġ1404": 1601,
      "Ġ1408": 1602,
      "Ġ1452": 1603,
      "Ġ1520": 1604,
      "Ġ1550": 1605,
      "Ġ1596": 1606,
      "Ġ1536": 1607,
      "Ġ1504": 1608,
      "Ġ1530": 1609,
      "Ġ1525": 1610,
      "Ġ1587": 1611,
      "Ġ1551": 1612,
      "Ġ1650": 1613,
      "Ġ1625": 1614,
      "Ġ1610": 1615,
      "Ġ1634": 1616,
      "Ġ1638": 1617,
      "Ġ1615": 1618,
      "Ġ179": 1619,
      "Ġ1720": 1620,
      "Ġ1704": 1621,
      "Ġ1764": 1622,
      "Ġ1725": 1623,
      "Ġ1775": 1624,
      "Ġ1716": 1625,
      "Ġ1722": 1626,
      "Ġ1734": 1627,
      "Ġ1748": 1628,
      "Ġ1749": 1629,
      "Ġ1742": 1630,
      "Ġ400": 1631,
      "Ġ402": 1632,
      "Ġ405": 1633,
      "Ġ408": 1634,
      "Ġ4020": 1635,
      "Ġ4012": 1636,
      "Ġ4050": 1637,
      "Ġ4087": 1638,
      "Ġ4018": 1639,
      "Ġ4092": 1640,
      "Ġ4026": 1641,
      "Ġ4085": 1642,
      "Ġ4002": 1643,
      "Ġ4042": 1644,
      "Ġ4071": 1645,
      "Ġ4095": 1646,
      "Ġ4029": 1647,
      "Ġ4059": 1648,
      "Ġ4074": 1649,
      "Ġ280": 1650,
      "Ġ282": 1651,
      "Ġ285": 1652,
      "Ġ286": 1653,
      "Ġ287": 1654,
      "Ġ288": 1655,
      "Ġ2850": 1656,
      "Ġ2852": 1657,
      "Ġ2870": 1658,
      "Ġ2816": 1659,
      "Ġ2822": 1660,
      "Ġ2844": 1661,
      "Ġ2847": 1662,
      "Ġ2862": 1663,
      "Ġ2813": 1664,
      "Ġ2821": 1665,
      "Ġ2829": 1666,
      "Ġ2867": 1667,
      "Ġ2898": 1668,
      "Ġ962": 1669,
      "Ġ969": 1670,
      "Ġ9600": 1671,
      "Ġ243": 1672,
      "Ġ244": 1673,
      "Ġ2420": 1674,
      "Ġ2432": 1675,
      "Ġ2408": 1676,
      "Ġ2414": 1677,
      "Ġ2418": 1678,
      "Ġ2475": 1679,
      "Ġ2451": 1680,
      "Ġ2449": 1681,
      "Ġ2499": 1682,
      "Ġ2491": 1683,
      "Ġ185": 1684,
      "Ġ187": 1685,
      "Ġ1800": 1686,
      "Ġ1850": 1687,
      "Ġ1856": 1688,
      "Ġ1830": 1689,
      "Ġ1825": 1690,
      "Ġ1887": 1691,
      "Ġ1890": 1692,
      "Ġ1870": 1693,
      "Ġ1892": 1694,
      "Ġ1885": 1695,
      "Ġ1843": 1696,
      "Ġ265": 1697,
      "Ġ267": 1698,
      "Ġ2680": 1699,
      "Ġ2632": 1700,
      "Ġ2668": 1701,
      "Ġ2650": 1702,
      "Ġ2684": 1703,
      "Ġ2652": 1704,
      "Ġ2624": 1705,
      "Ġ2622": 1706,
      "Ġ2666": 1707,
      "Ġ2619": 1708,
      "Ġ2627": 1709,
      "Ġ2695": 1710,
      "Ġ2639": 1711,
      "Ġ191": 1712,
      "Ġ193": 1713,
      "Ġ198": 1714,
      "Ġ1960": 1715,
      "Ġ1980": 1716,
      "Ġ1940": 1717,
      "Ġ1920": 1718,
      "Ġ1968": 1719,
      "Ġ1936": 1720,
      "Ġ1972": 1721,
      "Ġ1914": 1722,
      "Ġ1924": 1723,
      "Ġ1944": 1724,
      "Ġ1917": 1725,
      "Ġ1938": 1726,
      "Ġ1978": 1727,
      "Ġ1911": 1728,
      "Ġ812": 1729,
      "Ġ816": 1730,
      "Ġ819": 1731,
      "Ġ8160": 1732,
      "Ġ8188": 1733,
      "Ġ8118": 1734,
      "Ġ8134": 1735,
      "Ġ592": 1736,
      "Ġ594": 1737,
      "Ġ595": 1738,
      "Ġ598": 1739,
      "Ġ5980": 1740,
      "Ġ5984": 1741,
      "Ġ5916": 1742,
      "Ġ5922": 1743,
      "Ġ5934": 1744,
      "Ġ5976": 1745,
      "Ġ570": 1746,
      "Ġ572": 1747,
      "Ġ5700": 1748,
      "Ġ5760": 1749,
      "Ġ5740": 1750,
      "Ġ5772": 1751,
      "Ġ5751": 1752,
      "Ġ5785": 1753,
      "Ġ5762": 1754,
      "Ġ5795": 1755,
      "Ġ5782": 1756,
      "Ġ5723": 1757,
      "Ġ690": 1758,
      "Ġ696": 1759,
      "Ġ6900": 1760,
      "Ġ6972": 1761,
      "Ġ6935": 1762,
      "Ġ276": 1763,
      "Ġ279": 1764,
      "Ġ2760": 1765,
      "Ġ2720": 1766,
      "Ġ2736": 1767,
      "Ġ2756": 1768,
      "Ġ2772": 1769,
      "Ġ2784": 1770,
      "Ġ2765": 1771,
      "Ġ2738": 1772,
      "Ġ2759": 1773,
      "Ġ2774": 1774,
      "Ġ322": 1775,
      "Ġ323": 1776,
      "Ġ325": 1777,
      "Ġ328": 1778,
      "Ġ3240": 1779,
      "Ġ3230": 1780,
      "Ġ3225": 1781,
      "Ġ3276": 1782,
      "Ġ3249": 1783,
      "Ġ3237": 1784,
      "Ġ3213": 1785,
      "Ġ3283": 1786,
      "Ġ620": 1787,
      "Ġ624": 1788,
      "Ġ625": 1789,
      "Ġ627": 1790,
      "Ġ6200": 1791,
      "Ġ6232": 1792,
      "Ġ6272": 1793,
      "Ġ6270": 1794,
      "Ġ6231": 1795,
      "Ġ6237": 1796,
      "Ġ686": 1797,
      "Ġ688": 1798,
      "Ġ6800": 1799,
      "Ġ6804": 1800,
      "Ġ6864": 1801,
      "Ġ6825": 1802,
      "Ġ6888": 1803,
      "Ġ6887": 1804,
      "Ġ6853": 1805,
      "Ġ6873": 1806,
      "Ġ506": 1807,
      "Ġ5060": 1808,
      "Ġ5084": 1809,
      "Ġ5070": 1810,
      "Ġ5022": 1811,
      "Ġ5044": 1812,
      "Ġ5002": 1813,
      "Ġ5037": 1814,
      "Ġ5005": 1815,
      "Ġ970": 1816,
      "Ġ972": 1817,
      "Ġ975": 1818,
      "Ġ231": 1819,
      "Ġ232": 1820,
      "Ġ234": 1821,
      "Ġ238": 1822,
      "Ġ2300": 1823,
      "Ġ2340": 1824,
      "Ġ2368": 1825,
      "Ġ2356": 1826,
      "Ġ2318": 1827,
      "Ġ2370": 1828,
      "Ġ2392": 1829,
      "Ġ2349": 1830,
      "Ġ2331": 1831,
      "Ġ2337": 1832,
      "Ġ2328": 1833,
      "Ġ2379": 1834,
      "Ġ650": 1835,
      "Ġ6596": 1836,
      "Ġ6525": 1837,
      "Ġ6552": 1838,
      "Ġ6570": 1839,
      "Ġ6534": 1840,
      "Ġ6545": 1841,
      "Ġ6555": 1842,
      "Ġ6557": 1843,
      "Ġ220": 1844,
      "Ġ228": 1845,
      "Ġ2220": 1846,
      "Ġ2212": 1847,
      "Ġ2250": 1848,
      "Ġ2296": 1849,
      "Ġ2272": 1850,
      "Ġ2225": 1851,
      "Ġ2288": 1852,
      "Ġ2210": 1853,
      "Ġ2255": 1854,
      "Ġ2201": 1855,
      "Ġ2277": 1856,
      "Ġ424": 1857,
      "Ġ425": 1858,
      "Ġ427": 1859,
      "Ġ4260": 1860,
      "Ġ4232": 1861,
      "Ġ4268": 1862,
      "Ġ4212": 1863,
      "Ġ4284": 1864,
      "Ġ4288": 1865,
      "Ġ4224": 1866,
      "Ġ4290": 1867,
      "Ġ4218": 1868,
      "Ġ4292": 1869,
      "Ġ4278": 1870,
      "Ġ630": 1871,
      "Ġ632": 1872,
      "Ġ6396": 1873,
      "Ġ6308": 1874,
      "Ġ6314": 1875,
      "Ġ6390": 1876,
      "Ġ6370": 1877,
      "Ġ6348": 1878,
      "Ġ6351": 1879,
      "Ġ6365": 1880,
      "Ġ6319": 1881,
      "Ġ640": 1882,
      "Ġ646": 1883,
      "Ġ6400": 1884,
      "Ġ6460": 1885,
      "Ġ6480": 1886,
      "Ġ6468": 1887,
      "Ġ6438": 1888,
      "Ġ6478": 1889,
      "Ġ660": 1890,
      "Ġ664": 1891,
      "Ġ666": 1892,
      "Ġ6664": 1893,
      "Ġ6622": 1894,
      "Ġ6642": 1895,
      "Ġ6693": 1896,
      "Ġ671": 1897,
      "Ġ675": 1898,
      "Ġ6720": 1899,
      "Ġ6790": 1900,
      "Ġ6776": 1901,
      "Ġ726": 1902,
      "Ġ729": 1903,
      "Ġ7296": 1904,
      "Ġ7252": 1905,
      "Ġ7290": 1906,
      "Ġ7216": 1907,
      "Ġ950": 1908,
      "Ġ790": 1909,
      "Ġ792": 1910,
      "Ġ793": 1911,
      "Ġ799": 1912,
      "Ġ7980": 1913,
      "Ġ7920": 1914,
      "Ġ7912": 1915,
      "Ġ483": 1916,
      "Ġ484": 1917,
      "Ġ486": 1918,
      "Ġ4880": 1919,
      "Ġ4896": 1920,
      "Ġ4872": 1921,
      "Ġ4814": 1922,
      "Ġ4875": 1923,
      "Ġ4851": 1924,
      "Ġ4845": 1925,
      "Ġ4819": 1926,
      "Ġ4895": 1927,
      "Ġ4898": 1928,
      "Ġ846": 1929,
      "Ġ848": 1930,
      "Ġ252": 1931,
      "Ġ255": 1932,
      "Ġ256": 1933,
      "Ġ259": 1934,
      "Ġ2500": 1935,
      "Ġ2580": 1936,
      "Ġ2520": 1937,
      "Ġ2596": 1938,
      "Ġ2530": 1939,
      "Ġ2508": 1940,
      "Ġ2592": 1941,
      "Ġ2516": 1942,
      "Ġ2522": 1943,
      "Ġ2548": 1944,
      "Ġ2565": 1945,
      "Ġ2553": 1946,
      "Ġ2511": 1947,
      "Ġ2537": 1948,
      "Ġ2573": 1949,
      "Ġ2501": 1950,
      "Ġ910": 1951,
      "Ġ912": 1952,
      "Ġ918": 1953,
      "Ġ730": 1954,
      "Ġ735": 1955,
      "Ġ737": 1956,
      "Ġ7300": 1957,
      "Ġ7360": 1958,
      "Ġ7332": 1959,
      "Ġ7350": 1960,
      "Ġ7372": 1961,
      "Ġ7310": 1962,
      "Ġ7387": 1963,
      "Ġ7326": 1964,
      "Ġ616": 1965,
      "Ġ6120": 1966,
      "Ġ6110": 1967,
      "Ġ6175": 1968,
      "Ġ6162": 1969,
      "Ġ340": 1970,
      "Ġ348": 1971,
      "Ġ3480": 1972,
      "Ġ3432": 1973,
      "Ġ3450": 1974,
      "Ġ3456": 1975,
      "Ġ3408": 1976,
      "Ġ3465": 1977,
      "Ġ3417": 1978,
      "Ġ3402": 1979,
      "Ġ3431": 1980,
      "Ġ3445": 1981,
      "Ġ3478": 1982,
      "Ġ880": 1983,
      "Ġ8832": 1984,
      "Ġ8811": 1985,
      "Ġ580": 1986,
      "Ġ583": 1987,
      "Ġ589": 1988,
      "Ġ5840": 1989,
      "Ġ5856": 1990,
      "Ġ5865": 1991,
      "Ġ5828": 1992,
      "Ġ312": 1993,
      "Ġ316": 1994,
      "Ġ3100": 1995,
      "Ġ3160": 1996,
      "Ġ3180": 1997,
      "Ġ3150": 1998,
      "Ġ3196": 1999
    },
    "merges": [
      [
        "i",
        "n"
      ],
      [
        "Ġ",
        "a"
      ],
      [
        "s",
        "t"
      ],
      [
        "Ġ",
        "t"
      ],
      [
        "n",
        "d"
      ],
      [
        "č",
        "Ċ"
      ],
      [
        "o",
        "f"
      ],
      [
        "s",
        "e"
      ],
      [
        "l",
        "e"
      ],
      [
        "Ġ",
        "m"
      ],
      [
        "t",
        "e"
      ],
      [
        "o",
        "u"
      ],
      [
        "Ġ",
        "in"
      ],
      [
        "Ġ",
        "i"
      ],
      [
        "h",
        "e"
      ],
      [
        "o",
        "r"
      ],
      [
        "Ġ",
        "b"
      ],
      [
        "t",
        "i"
      ],
      [
        "in",
        "g"
      ],
      [
        "a",
        "st"
      ],
      [
        "g",
        "ast"
      ],
      [
        "y",
        "a"
      ],
      [
        "gast",
        "ya"
      ],
      [
        "y",
        "ou"
      ],
      [
        "x",
        "t"
      ],
      [
        "Ġ",
        "you"
      ],
      [
        "A",
        "gastya"
      ],
      [
        "e",
        "nd"
      ],
      [
        "<",
        "|"
      ],
      [
        "U",
        "se"
      ],
      [
        "|",
        ">"
      ],
      [
        "of",
        "te"
      ],
      [
        "end",
        "ofte"
      ],
      [
        "Use",
        "r"
      ],
      [
        "endofte",
        "xt"
      ],
      [
        "Ġ",
        "of"
      ],
      [
        ".",
        "<|"
      ],
      [
        "a",
        "r"
      ],
      [
        "l",
        "o"
      ],
      [
        "d",
        "e"
      ],
      [
        "Ġ",
        "c"
      ],
      [
        "c",
        "k"
      ],
      [
        "Ġt",
        "o"
      ],
      [
        "c",
        "t"
      ],
      [
        "Ġ",
        "s"
      ],
      [
        "Ġ",
        "T"
      ],
      [
        "e",
        "n"
      ],
      [
        "e",
        "d"
      ],
      [
        "a",
        "t"
      ],
      [
        "Ġi",
        "s"
      ],
      [
        "p",
        "le"
      ],
      [
        "a",
        "n"
      ],
      [
        "Ġ",
        "st"
      ],
      [
        "Ġa",
        "nd"
      ],
      [
        "m",
        "ple"
      ],
      [
        "p",
        "r"
      ],
      [
        "l",
        "y"
      ],
      [
        "Ġm",
        "e"
      ],
      [
        "Ġ",
        "w"
      ],
      [
        "r",
        "u"
      ],
      [
        "r",
        "a"
      ],
      [
        "Ġt",
        "he"
      ],
      [
        "o",
        "n"
      ],
      [
        "l",
        "i"
      ],
      [
        "c",
        "a"
      ],
      [
        "i",
        "t"
      ],
      [
        "v",
        "a"
      ],
      [
        "Ġ",
        "e"
      ],
      [
        "a",
        "ck"
      ],
      [
        "ĠT",
        "he"
      ],
      [
        "Ġyou",
        "r"
      ],
      [
        "Ġ",
        "h"
      ],
      [
        "Ġ",
        "pr"
      ],
      [
        "Ġst",
        "ack"
      ],
      [
        "h",
        "at"
      ],
      [
        "en",
        "t"
      ],
      [
        "o",
        "w"
      ],
      [
        "c",
        "h"
      ],
      [
        "s",
        "i"
      ],
      [
        "Ġ",
        "o"
      ],
      [
        "Ġa",
        "l"
      ],
      [
        "m",
        "ent"
      ],
      [
        "Ġal",
        "lo"
      ],
      [
        "b",
        "le"
      ],
      [
        "m",
        "or"
      ],
      [
        "Ġin",
        "si"
      ],
      [
        "Ġi",
        "mple"
      ],
      [
        "Ġme",
        "mor"
      ],
      [
        "Ġinsi",
        "de"
      ],
      [
        "Ġimple",
        "ment"
      ],
      [
        "Ġmemor",
        "y"
      ],
      [
        "Ġ",
        "ru"
      ],
      [
        "Ġc",
        "o"
      ],
      [
        "Ġ",
        "W"
      ],
      [
        "Ġ",
        "f"
      ],
      [
        "ĠW",
        "hat"
      ],
      [
        "Ġa",
        "r"
      ],
      [
        "g",
        "e"
      ],
      [
        "ti",
        "on"
      ],
      [
        "e",
        "e"
      ],
      [
        "a",
        "ble"
      ],
      [
        "ra",
        "y"
      ],
      [
        "Ġar",
        "ray"
      ],
      [
        "e",
        "s"
      ],
      [
        "Ġ",
        "de"
      ],
      [
        "m",
        "e"
      ],
      [
        "u",
        "m"
      ],
      [
        "n",
        "ing"
      ],
      [
        "n",
        "ning"
      ],
      [
        "Ġru",
        "nning"
      ],
      [
        "a",
        "te"
      ],
      [
        "a",
        "ge"
      ],
      [
        "Ġm",
        "an"
      ],
      [
        "Ġman",
        "age"
      ],
      [
        "u",
        "e"
      ],
      [
        "Ġw",
        "or"
      ],
      [
        "l",
        "u"
      ],
      [
        "r",
        "i"
      ],
      [
        "Ġ",
        "C"
      ],
      [
        "Ġs",
        "um"
      ],
      [
        "i",
        "me"
      ],
      [
        "Ġt",
        "ime"
      ],
      [
        "mple",
        "x"
      ],
      [
        "it",
        "y"
      ],
      [
        "Ġco",
        "mplex"
      ],
      [
        "va",
        "lu"
      ],
      [
        "Ġe",
        "valu"
      ],
      [
        "Ġevalu",
        "ate"
      ],
      [
        "ca",
        "se"
      ],
      [
        "Ġwor",
        "st"
      ],
      [
        "Ġcomplex",
        "ity"
      ],
      [
        "Ġpr",
        "o"
      ],
      [
        "Ġ",
        "S"
      ],
      [
        "Ġ",
        "1"
      ],
      [
        "v",
        "e"
      ],
      [
        "Ġh",
        "a"
      ],
      [
        "d",
        "u"
      ],
      [
        "Ġ",
        "u"
      ],
      [
        "Ġc",
        "le"
      ],
      [
        "Ġpro",
        "du"
      ],
      [
        "i",
        "z"
      ],
      [
        "s",
        "ing"
      ],
      [
        "Ġ",
        "k"
      ],
      [
        "c",
        "ri"
      ],
      [
        "p",
        "t"
      ],
      [
        "cri",
        "pt"
      ],
      [
        "l",
        "ly"
      ],
      [
        "m",
        "iz"
      ],
      [
        "o",
        "o"
      ],
      [
        "u",
        "ra"
      ],
      [
        "Ġo",
        "p"
      ],
      [
        "a",
        "va"
      ],
      [
        "l",
        "a"
      ],
      [
        "e",
        "ct"
      ],
      [
        "i",
        "es"
      ],
      [
        "Ġm",
        "at"
      ],
      [
        "ti",
        "miz"
      ],
      [
        "ar",
        "e"
      ],
      [
        "Ġst",
        "ru"
      ],
      [
        "Ġf",
        "oo"
      ],
      [
        "ee",
        "p"
      ],
      [
        "Ġcle",
        "an"
      ],
      [
        "Ġop",
        "timiz"
      ],
      [
        "Ġstru",
        "ct"
      ],
      [
        "j",
        "ect"
      ],
      [
        "t",
        "s"
      ],
      [
        "z",
        "ing"
      ],
      [
        "in",
        "ar"
      ],
      [
        "lo",
        "ck"
      ],
      [
        "ĠT",
        "o"
      ],
      [
        "en",
        "e"
      ],
      [
        "ed",
        "i"
      ],
      [
        "ca",
        "tion"
      ],
      [
        "Ġpr",
        "edi"
      ],
      [
        "Ġallo",
        "cation"
      ],
      [
        "Ġk",
        "eep"
      ],
      [
        "Ġoptimiz",
        "ed"
      ],
      [
        "Ġstruct",
        "ura"
      ],
      [
        "inar",
        "y"
      ],
      [
        "Ġ",
        "q"
      ],
      [
        "U",
        "sing"
      ],
      [
        "b",
        "ject"
      ],
      [
        "c",
        "l"
      ],
      [
        "f",
        "it"
      ],
      [
        "t",
        "pr"
      ],
      [
        "w",
        "s"
      ],
      [
        "Ġ",
        "Using"
      ],
      [
        "in",
        "ts"
      ],
      [
        "nd",
        "ar"
      ],
      [
        "ou",
        "ndar"
      ],
      [
        "or",
        "t"
      ],
      [
        "Ġb",
        "lock"
      ],
      [
        "Ġb",
        "ene"
      ],
      [
        "Ġb",
        "oundar"
      ],
      [
        "ti",
        "li"
      ],
      [
        "ar",
        "ch"
      ],
      [
        "ct",
        "able"
      ],
      [
        "ch",
        "ing"
      ],
      [
        "Ġo",
        "bject"
      ],
      [
        "Ġallo",
        "ws"
      ],
      [
        "Ġarray",
        "s"
      ],
      [
        "Ġde",
        "cl"
      ],
      [
        "Ġu",
        "tili"
      ],
      [
        "Ġmat",
        "ching"
      ],
      [
        "Ġfoo",
        "tpr"
      ],
      [
        "Ġclean",
        "ly"
      ],
      [
        "Ġpredi",
        "ctable"
      ],
      [
        "Ġkeep",
        "s"
      ],
      [
        "Ġstructura",
        "lly"
      ],
      [
        "Ġbene",
        "fit"
      ],
      [
        "Ġboundar",
        "ies"
      ],
      [
        "Ġdecl",
        "are"
      ],
      [
        "Ġutili",
        "zing"
      ],
      [
        "Ġfootpr",
        "ints"
      ],
      [
        "f",
        "e"
      ],
      [
        "p",
        "la"
      ],
      [
        "x",
        "pla"
      ],
      [
        "Ġ",
        "d"
      ],
      [
        "xpla",
        "in"
      ],
      [
        "Ġh",
        "ow"
      ],
      [
        "Ġ",
        "se"
      ],
      [
        "Ġb",
        "inary"
      ],
      [
        "p",
        "e"
      ],
      [
        "Ġa",
        "n"
      ],
      [
        "Ġse",
        "arch"
      ],
      [
        "Ġ",
        "li"
      ],
      [
        "Ġa",
        "t"
      ],
      [
        "Ġ",
        "2"
      ],
      [
        "Ġ",
        "n"
      ],
      [
        "Ġ",
        "6"
      ],
      [
        "Ġq",
        "ue"
      ],
      [
        "a",
        "y"
      ],
      [
        "Ġt",
        "r"
      ],
      [
        "u",
        "l"
      ],
      [
        "Ġ",
        "5"
      ],
      [
        "Ġ",
        "3"
      ],
      [
        "Ġ",
        "H"
      ],
      [
        "Ġ",
        "4"
      ],
      [
        "Ġ",
        "9"
      ],
      [
        "s",
        "h"
      ],
      [
        "p",
        "li"
      ],
      [
        "Ġm",
        "ul"
      ],
      [
        "Ġb",
        "y"
      ],
      [
        "ti",
        "pli"
      ],
      [
        "Ġevaluate",
        "s"
      ],
      [
        "Ġprodu",
        "ct"
      ],
      [
        "Ġmul",
        "tipli"
      ],
      [
        "Ġmultipli",
        "ed"
      ],
      [
        "Ġ",
        "8"
      ],
      [
        "Ġ",
        "7"
      ],
      [
        ")",
        ".<|"
      ],
      [
        "k",
        "ed"
      ],
      [
        "l",
        "in"
      ],
      [
        "Ġ",
        "O"
      ],
      [
        "Ġ",
        "lin"
      ],
      [
        "Ġt",
        "able"
      ],
      [
        "Ġevaluate",
        "d"
      ],
      [
        "Ġha",
        "sh"
      ],
      [
        "Ġli",
        "st"
      ],
      [
        "Ġque",
        "ue"
      ],
      [
        "Ġtr",
        "ee"
      ],
      [
        "Ġlin",
        "ked"
      ],
      [
        "l",
        "d"
      ],
      [
        "u",
        "b"
      ],
      [
        "u",
        "i"
      ],
      [
        "t",
        "h"
      ],
      [
        "ĠH",
        "ow"
      ],
      [
        "Ġ",
        "J"
      ],
      [
        "Ġ",
        "j"
      ],
      [
        "Ġf",
        "or"
      ],
      [
        "Ġ",
        "lo"
      ],
      [
        "i",
        "f"
      ],
      [
        "r",
        "s"
      ],
      [
        "y",
        "th"
      ],
      [
        "Ġw",
        "e"
      ],
      [
        "+",
        "+"
      ],
      [
        "S",
        "cript"
      ],
      [
        "w",
        "if"
      ],
      [
        "Ġ",
        "R"
      ],
      [
        "ou",
        "ld"
      ],
      [
        "Ġco",
        "de"
      ],
      [
        "ĠC",
        "an"
      ],
      [
        "ĠC",
        "ould"
      ],
      [
        "Ġd",
        "o"
      ],
      [
        "ĠJ",
        "ava"
      ],
      [
        "Ġj",
        "ava"
      ],
      [
        "yth",
        "on"
      ],
      [
        "wif",
        "t"
      ],
      [
        "ui",
        "ck"
      ],
      [
        "c",
        "tion"
      ],
      [
        "Ġs",
        "ort"
      ],
      [
        "ĠS",
        "ort"
      ],
      [
        "c",
        "ti"
      ],
      [
        "nd",
        "le"
      ],
      [
        "lo",
        "pe"
      ],
      [
        "Ġe",
        "xplain"
      ],
      [
        "Ġde",
        "ve"
      ],
      [
        "Ġha",
        "ndle"
      ],
      [
        "cti",
        "ve"
      ],
      [
        "lope",
        "rs"
      ],
      [
        "Ġdeve",
        "lopers"
      ],
      [
        "Ġ",
        "g"
      ],
      [
        "r",
        "e"
      ],
      [
        "E",
        "xplain"
      ],
      [
        "a",
        "fe"
      ],
      [
        "f",
        "fe"
      ],
      [
        "h",
        "ow"
      ],
      [
        "Ġ",
        "P"
      ],
      [
        "Ġ",
        "Explain"
      ],
      [
        "Ġs",
        "afe"
      ],
      [
        "Ġs",
        "how"
      ],
      [
        "Ġw",
        "ay"
      ],
      [
        "Ġe",
        "ffe"
      ],
      [
        "Ġprodu",
        "ction"
      ],
      [
        "ctive",
        "ly"
      ],
      [
        "Ġsafe",
        "ly"
      ],
      [
        "Ġeffe",
        "ctively"
      ],
      [
        "u",
        "st"
      ],
      [
        "Ġ",
        "B"
      ],
      [
        "Ġ",
        "p"
      ],
      [
        "Ġt",
        "e"
      ],
      [
        "r",
        "ge"
      ],
      [
        "ub",
        "ble"
      ],
      [
        "Ġlo",
        "g"
      ],
      [
        "l",
        "l"
      ],
      [
        "p",
        "es"
      ],
      [
        "Ġ",
        "I"
      ],
      [
        "Ġw",
        "hat"
      ],
      [
        "Ġ",
        "G"
      ],
      [
        "y",
        "pes"
      ],
      [
        "Ġt",
        "ypes"
      ],
      [
        "Q",
        "L"
      ],
      [
        "b",
        "y"
      ],
      [
        "c",
        "e"
      ],
      [
        "q",
        "l"
      ],
      [
        "s",
        "cript"
      ],
      [
        "y",
        "pe"
      ],
      [
        "Ġs",
        "wift"
      ],
      [
        "Ġs",
        "ql"
      ],
      [
        "ĠT",
        "ype"
      ],
      [
        "Ġru",
        "st"
      ],
      [
        "Ġru",
        "by"
      ],
      [
        "ĠS",
        "wift"
      ],
      [
        "ĠS",
        "QL"
      ],
      [
        "ub",
        "y"
      ],
      [
        "ĠR",
        "ust"
      ],
      [
        "ĠR",
        "uby"
      ],
      [
        "ĠJava",
        "Script"
      ],
      [
        "Ġjava",
        "script"
      ],
      [
        "Ġg",
        "o"
      ],
      [
        "ĠP",
        "ython"
      ],
      [
        "Ġp",
        "ython"
      ],
      [
        "ĠG",
        "o"
      ],
      [
        "Ġtypes",
        "cript"
      ],
      [
        "ĠType",
        "Script"
      ],
      [
        "Q",
        "uick"
      ],
      [
        "Ġ",
        "Quick"
      ],
      [
        "Ġq",
        "uick"
      ],
      [
        "a",
        "l"
      ],
      [
        "Ġ1",
        "0"
      ],
      [
        "Ġte",
        "ll"
      ],
      [
        "Ġ",
        "M"
      ],
      [
        "!",
        "<|"
      ],
      [
        "a",
        "se"
      ],
      [
        "g",
        "h"
      ],
      [
        "h",
        "o"
      ],
      [
        "Ġa",
        "gastya"
      ],
      [
        "Ġb",
        "u"
      ],
      [
        "Ġ",
        "he"
      ],
      [
        "Ġar",
        "e"
      ],
      [
        "e",
        "arch"
      ],
      [
        "e",
        "rge"
      ],
      [
        "Ġb",
        "ubble"
      ],
      [
        "lo",
        "g"
      ],
      [
        "Ġme",
        "rge"
      ],
      [
        "ĠS",
        "earch"
      ],
      [
        "ĠB",
        "inary"
      ],
      [
        "ĠB",
        "ubble"
      ],
      [
        "ĠM",
        "erge"
      ],
      [
        "e",
        "r"
      ],
      [
        "k",
        "e"
      ],
      [
        "Ġ",
        "on"
      ],
      [
        "Ġa",
        "m"
      ],
      [
        "Ġc",
        "an"
      ],
      [
        "ri",
        "gh"
      ],
      [
        "re",
        "a"
      ],
      [
        "righ",
        "t"
      ],
      [
        "Ġ1",
        "2"
      ],
      [
        "Ġ1",
        "1"
      ],
      [
        "Ġ",
        "A"
      ],
      [
        "Ġ1",
        "3"
      ],
      [
        "a",
        "tion"
      ],
      [
        "c",
        "es"
      ],
      [
        "d",
        "y"
      ],
      [
        "d",
        "ay"
      ],
      [
        "l",
        "p"
      ],
      [
        "m",
        "s"
      ],
      [
        "r",
        "o"
      ],
      [
        "u",
        "r"
      ],
      [
        "Ġ",
        "Y"
      ],
      [
        "Ġ",
        "en"
      ],
      [
        "Ġ",
        "right"
      ],
      [
        "Ġm",
        "in"
      ],
      [
        "Ġb",
        "ui"
      ],
      [
        "ar",
        "d"
      ],
      [
        "Ġto",
        "day"
      ],
      [
        "Ġs",
        "o"
      ],
      [
        "Ġs",
        "y"
      ],
      [
        "Ġf",
        "i"
      ],
      [
        "Ġpro",
        "ces"
      ],
      [
        "Ġw",
        "ho"
      ],
      [
        "Ġhe",
        "lp"
      ],
      [
        "Ġ1",
        "4"
      ],
      [
        "Ġ1",
        "5"
      ],
      [
        "++",
        ","
      ],
      [
        "ĠH",
        "e"
      ],
      [
        "Ġ1",
        "6"
      ],
      [
        "Ġ1",
        "7"
      ],
      [
        "'",
        "t"
      ],
      [
        "D",
        "o"
      ],
      [
        "a",
        "s"
      ],
      [
        "a",
        "nd"
      ],
      [
        "d",
        "dy"
      ],
      [
        "i",
        "c"
      ],
      [
        "i",
        "te"
      ],
      [
        "i",
        "on"
      ],
      [
        "i",
        "ce"
      ],
      [
        "k",
        "en"
      ],
      [
        "n",
        "ow"
      ],
      [
        "s",
        "s"
      ],
      [
        "s",
        "w"
      ],
      [
        "w",
        "ay"
      ],
      [
        "Ġ",
        "ou"
      ],
      [
        "Ġ",
        "ple"
      ],
      [
        "Ġ",
        "la"
      ],
      [
        "Ġ",
        "Do"
      ],
      [
        "st",
        "e"
      ],
      [
        "st",
        "ion"
      ],
      [
        "le",
        "ase"
      ],
      [
        "Ġm",
        "o"
      ],
      [
        "Ġm",
        "y"
      ],
      [
        "Ġb",
        "e"
      ],
      [
        "Ġc",
        "re"
      ],
      [
        "Ġto",
        "ken"
      ],
      [
        "en",
        "ce"
      ],
      [
        "Ġw",
        "as"
      ],
      [
        "ca",
        "l"
      ],
      [
        "ca",
        "lly"
      ],
      [
        "Ġh",
        "o"
      ],
      [
        "ate",
        "d"
      ],
      [
        "ri",
        "c"
      ],
      [
        "Ġcle",
        "ar"
      ],
      [
        "Ġk",
        "now"
      ],
      [
        "Ġd",
        "ay"
      ],
      [
        "Ġan",
        "sw"
      ],
      [
        "Ġn",
        "e"
      ],
      [
        "Ġn",
        "ow"
      ],
      [
        "Ġque",
        "stion"
      ],
      [
        "ĠP",
        "lease"
      ],
      [
        "Ġquick",
        "ly"
      ],
      [
        "Ġbu",
        "t"
      ],
      [
        "Ġbu",
        "ddy"
      ],
      [
        "ĠY",
        "o"
      ],
      [
        "Ġsy",
        "ste"
      ],
      [
        "Ġfi",
        "le"
      ],
      [
        "ĠHe",
        "y"
      ],
      [
        "Ġou",
        "t"
      ],
      [
        "Ġple",
        "ase"
      ],
      [
        "Ġcre",
        "ated"
      ],
      [
        "Ġansw",
        "er"
      ],
      [
        "Ġ4",
        "0"
      ],
      [
        "Ġ2",
        "8"
      ],
      [
        "Ġ9",
        "6"
      ],
      [
        "Ġ2",
        "4"
      ],
      [
        "Ġ1",
        "8"
      ],
      [
        "Ġ2",
        "6"
      ],
      [
        "Ġ1",
        "9"
      ],
      [
        "Ġ8",
        "1"
      ],
      [
        "Ġ5",
        "9"
      ],
      [
        "Ġ5",
        "7"
      ],
      [
        "Ġ6",
        "9"
      ],
      [
        "Ġ2",
        "7"
      ],
      [
        "Ġ3",
        "2"
      ],
      [
        "Ġ6",
        "2"
      ],
      [
        "Ġ6",
        "8"
      ],
      [
        "Ġ5",
        "0"
      ],
      [
        "Ġ9",
        "7"
      ],
      [
        "Ġ2",
        "3"
      ],
      [
        "Ġ6",
        "5"
      ],
      [
        "Ġ2",
        "2"
      ],
      [
        "Ġ4",
        "2"
      ],
      [
        "Ġ6",
        "3"
      ],
      [
        "Ġ6",
        "4"
      ],
      [
        "Ġ6",
        "6"
      ],
      [
        "Ġ6",
        "7"
      ],
      [
        "Ġ7",
        "2"
      ],
      [
        "Ġ9",
        "5"
      ],
      [
        "Ġ7",
        "9"
      ],
      [
        "Ġ4",
        "8"
      ],
      [
        "Ġ8",
        "4"
      ],
      [
        "Ġ2",
        "5"
      ],
      [
        "Ġ9",
        "1"
      ],
      [
        "Ġ7",
        "3"
      ],
      [
        "Ġ6",
        "1"
      ],
      [
        "Ġ3",
        "4"
      ],
      [
        "Ġ8",
        "8"
      ],
      [
        "Ġ5",
        "8"
      ],
      [
        "Ġ3",
        "1"
      ],
      [
        "Ġ6",
        "0"
      ],
      [
        "Ġ4",
        "3"
      ],
      [
        "Ġ5",
        "5"
      ],
      [
        "Ġ5",
        "6"
      ],
      [
        "Ġ3",
        "7"
      ],
      [
        "Ġ4",
        "4"
      ],
      [
        "Ġ10",
        "0"
      ],
      [
        "Ġ2",
        "0"
      ],
      [
        "Ġ3",
        "8"
      ],
      [
        "Ġ9",
        "3"
      ],
      [
        "Ġ3",
        "6"
      ],
      [
        "Ġ7",
        "1"
      ],
      [
        "Ġ5",
        "4"
      ],
      [
        "Ġ4",
        "6"
      ],
      [
        "Ġ3",
        "0"
      ],
      [
        "Ġ3",
        "3"
      ],
      [
        "Ġ8",
        "9"
      ],
      [
        "Ġ7",
        "6"
      ],
      [
        "Ġ7",
        "7"
      ],
      [
        "Ġ4",
        "9"
      ],
      [
        "Ġ9",
        "2"
      ],
      [
        "Ġ8",
        "7"
      ],
      [
        "Ġ7",
        "8"
      ],
      [
        "Ġ3",
        "9"
      ],
      [
        "Ġ8",
        "3"
      ],
      [
        "Ġ5",
        "3"
      ],
      [
        "Ġ4",
        "5"
      ],
      [
        "Ġ7",
        "5"
      ],
      [
        "Ġ2",
        "1"
      ],
      [
        "Ġ8",
        "6"
      ],
      [
        "Ġ4",
        "7"
      ],
      [
        "'",
        "s"
      ],
      [
        "N",
        "o"
      ],
      [
        "T",
        "or"
      ],
      [
        "a",
        "v"
      ],
      [
        "b",
        "b"
      ],
      [
        "d",
        "v"
      ],
      [
        "e",
        "p"
      ],
      [
        "f",
        "or"
      ],
      [
        "g",
        "ra"
      ],
      [
        "i",
        "m"
      ],
      [
        "i",
        "r"
      ],
      [
        "i",
        "ent"
      ],
      [
        "i",
        "ve"
      ],
      [
        "i",
        "cally"
      ],
      [
        "k",
        "s"
      ],
      [
        "k",
        "ing"
      ],
      [
        "l",
        "t"
      ],
      [
        "m",
        "a"
      ],
      [
        "m",
        "m"
      ],
      [
        "m",
        "in"
      ],
      [
        "n",
        "s"
      ],
      [
        "o",
        "ke"
      ],
      [
        "s",
        "for"
      ],
      [
        "u",
        "te"
      ],
      [
        "w",
        "or"
      ],
      [
        "w",
        "are"
      ],
      [
        "y",
        "Tor"
      ],
      [
        "z",
        "ed"
      ],
      [
        "Ġ",
        "F"
      ],
      [
        "Ġ",
        "ra"
      ],
      [
        "Ġ",
        "No"
      ],
      [
        "Ġa",
        "dv"
      ],
      [
        "Ġt",
        "ho"
      ],
      [
        "Ġm",
        "a"
      ],
      [
        "te",
        "n"
      ],
      [
        "he",
        "r"
      ],
      [
        "or",
        "ite"
      ],
      [
        "Ġb",
        "ack"
      ],
      [
        "Ġb",
        "rea"
      ],
      [
        "ti",
        "re"
      ],
      [
        "you",
        "t"
      ],
      [
        "de",
        "l"
      ],
      [
        "Ġc",
        "on"
      ],
      [
        "Ġc",
        "hat"
      ],
      [
        "Ġc",
        "ust"
      ],
      [
        "Ġc",
        "ur"
      ],
      [
        "Ġs",
        "c"
      ],
      [
        "Ġs",
        "pe"
      ],
      [
        "at",
        "a"
      ],
      [
        "at",
        "her"
      ],
      [
        "an",
        "ing"
      ],
      [
        "an",
        "sfor"
      ],
      [
        "Ġst",
        "rea"
      ],
      [
        "Ġme",
        "aning"
      ],
      [
        "it",
        "h"
      ],
      [
        "Ġh",
        "um"
      ],
      [
        "Ġh",
        "ard"
      ],
      [
        "ow",
        "n"
      ],
      [
        "Ġf",
        "av"
      ],
      [
        "tion",
        "s"
      ],
      [
        "Ġde",
        "ep"
      ],
      [
        "me",
        "r"
      ],
      [
        "Ġu",
        "p"
      ],
      [
        "Ġu",
        "sing"
      ],
      [
        "ura",
        "l"
      ],
      [
        "Ġfoo",
        "d"
      ],
      [
        "Ġd",
        "on"
      ],
      [
        "Ġd",
        "ata"
      ],
      [
        "Ġd",
        "own"
      ],
      [
        "Ġli",
        "fe"
      ],
      [
        "Ġli",
        "ke"
      ],
      [
        "Ġ2",
        "9"
      ],
      [
        "Ġtr",
        "ansfor"
      ],
      [
        "Ġ4",
        "1"
      ],
      [
        "Ġ9",
        "4"
      ],
      [
        "ĠJ",
        "ust"
      ],
      [
        "Ġj",
        "oke"
      ],
      [
        "Ġlo",
        "o"
      ],
      [
        "Ġlo",
        "ss"
      ],
      [
        "Ġlo",
        "cal"
      ],
      [
        "Ġwe",
        "ather"
      ],
      [
        "Ġg",
        "ra"
      ],
      [
        "ĠP",
        "yTor"
      ],
      [
        "Ġte",
        "xt"
      ],
      [
        "ĠM",
        "y"
      ],
      [
        "Ġhe",
        "re"
      ],
      [
        "ation",
        "s"
      ],
      [
        "ur",
        "es"
      ],
      [
        "Ġen",
        "tire"
      ],
      [
        "Ġmin",
        "d"
      ],
      [
        "Ġbui",
        "ld"
      ],
      [
        "Ġbui",
        "lt"
      ],
      [
        "Ġso",
        "me"
      ],
      [
        "Ġproces",
        "s"
      ],
      [
        "Ġproces",
        "sing"
      ],
      [
        "way",
        "s"
      ],
      [
        "Ġla",
        "yout"
      ],
      [
        "Ġmo",
        "del"
      ],
      [
        "Ġho",
        "bb"
      ],
      [
        "Ġsyste",
        "ms"
      ],
      [
        "Ġfile",
        "s"
      ],
      [
        "im",
        "um"
      ],
      [
        "min",
        "al"
      ],
      [
        "Ġra",
        "w"
      ],
      [
        "Ġadv",
        "ice"
      ],
      [
        "Ġtho",
        "se"
      ],
      [
        "Ġbrea",
        "king"
      ],
      [
        "Ġcust",
        "o"
      ],
      [
        "Ġhum",
        "an"
      ],
      [
        "Ġhard",
        "ware"
      ],
      [
        "Ġfav",
        "orite"
      ],
      [
        "Ġtransfor",
        "mer"
      ],
      [
        "ĠPyTor",
        "ch"
      ],
      [
        "Ġentire",
        "ly"
      ],
      [
        "Ġhobb",
        "ies"
      ],
      [
        "Ġ9",
        "0"
      ],
      [
        "Ġ8",
        "2"
      ],
      [
        "Ġ5",
        "1"
      ],
      [
        "Ġ9",
        "9"
      ],
      [
        "Ġ8",
        "0"
      ],
      [
        "Ġ7",
        "4"
      ],
      [
        "Ġ3",
        "5"
      ],
      [
        "Ġ9",
        "8"
      ],
      [
        "Ġ5",
        "2"
      ],
      [
        "Ġ8",
        "5"
      ],
      [
        "Ġ7",
        "0"
      ],
      [
        "Ġg",
        "ive"
      ],
      [
        "0",
        "0"
      ],
      [
        "#",
        "!<|"
      ],
      [
        "?",
        "<|"
      ],
      [
        "A",
        "M"
      ],
      [
        "I",
        "s"
      ],
      [
        "K",
        "eep"
      ],
      [
        "P",
        "U"
      ],
      [
        "P",
        "Is"
      ],
      [
        "R",
        "AM"
      ],
      [
        "V",
        "RAM"
      ],
      [
        "a",
        "m"
      ],
      [
        "a",
        "in"
      ],
      [
        "a",
        "ly"
      ],
      [
        "a",
        "li"
      ],
      [
        "a",
        "sh"
      ],
      [
        "a",
        "ke"
      ],
      [
        "b",
        "o"
      ],
      [
        "b",
        "s"
      ],
      [
        "b",
        "al"
      ],
      [
        "b",
        "ient"
      ],
      [
        "c",
        "u"
      ],
      [
        "c",
        "ent"
      ],
      [
        "c",
        "if"
      ],
      [
        "d",
        "ing"
      ],
      [
        "d",
        "th"
      ],
      [
        "d",
        "ation"
      ],
      [
        "d",
        "ient"
      ],
      [
        "e",
        "g"
      ],
      [
        "e",
        "ca"
      ],
      [
        "e",
        "ts"
      ],
      [
        "e",
        "rs"
      ],
      [
        "f",
        "ul"
      ],
      [
        "f",
        "ic"
      ],
      [
        "g",
        "or"
      ],
      [
        "g",
        "ing"
      ],
      [
        "g",
        "it"
      ],
      [
        "g",
        "ence"
      ],
      [
        "h",
        "y"
      ],
      [
        "h",
        "ing"
      ],
      [
        "h",
        "ic"
      ],
      [
        "i",
        "ti"
      ],
      [
        "i",
        "ll"
      ],
      [
        "i",
        "al"
      ],
      [
        "i",
        "gh"
      ],
      [
        "i",
        "ence"
      ],
      [
        "i",
        "dth"
      ],
      [
        "i",
        "git"
      ],
      [
        "j",
        "o"
      ],
      [
        "k",
        "st"
      ],
      [
        "l",
        "f"
      ],
      [
        "l",
        "s"
      ],
      [
        "l",
        "ar"
      ],
      [
        "l",
        "li"
      ],
      [
        "l",
        "ve"
      ],
      [
        "l",
        "ways"
      ],
      [
        "m",
        "o"
      ],
      [
        "m",
        "p"
      ],
      [
        "m",
        "ing"
      ],
      [
        "m",
        "me"
      ],
      [
        "m",
        "oo"
      ],
      [
        "n",
        "t"
      ],
      [
        "n",
        "ction"
      ],
      [
        "n",
        "am"
      ],
      [
        "o",
        "ple"
      ],
      [
        "o",
        "lu"
      ],
      [
        "o",
        "minal"
      ],
      [
        "o",
        "ls"
      ],
      [
        "p",
        "p"
      ],
      [
        "p",
        "s"
      ],
      [
        "p",
        "y"
      ],
      [
        "p",
        "he"
      ],
      [
        "p",
        "tion"
      ],
      [
        "p",
        "hic"
      ],
      [
        "q",
        "u"
      ],
      [
        "r",
        "ent"
      ],
      [
        "r",
        "es"
      ],
      [
        "r",
        "yth"
      ],
      [
        "r",
        "ce"
      ],
      [
        "r",
        "ence"
      ],
      [
        "r",
        "ns"
      ],
      [
        "r",
        "minal"
      ],
      [
        "s",
        "u"
      ],
      [
        "s",
        "se"
      ],
      [
        "s",
        "ou"
      ],
      [
        "s",
        "pe"
      ],
      [
        "s",
        "cent"
      ],
      [
        "s",
        "phe"
      ],
      [
        "t",
        "o"
      ],
      [
        "t",
        "or"
      ],
      [
        "t",
        "ing"
      ],
      [
        "t",
        "ast"
      ],
      [
        "t",
        "ric"
      ],
      [
        "t",
        "wor"
      ],
      [
        "u",
        "se"
      ],
      [
        "u",
        "ch"
      ],
      [
        "u",
        "nction"
      ],
      [
        "u",
        "tor"
      ],
      [
        "v",
        "es"
      ],
      [
        "v",
        "ir"
      ],
      [
        "w",
        "idth"
      ],
      [
        "x",
        "ce"
      ],
      [
        "x",
        "imum"
      ],
      [
        "y",
        "ers"
      ],
      [
        "y",
        "nam"
      ],
      [
        "Ġ",
        "le"
      ],
      [
        "Ġ",
        "or"
      ],
      [
        "Ġ",
        "Agastya"
      ],
      [
        "Ġ",
        "va"
      ],
      [
        "Ġ",
        "ge"
      ],
      [
        "Ġ",
        "pe"
      ],
      [
        "Ġ",
        "rea"
      ],
      [
        "Ġ",
        "Keep"
      ],
      [
        "Ġ",
        "VRAM"
      ],
      [
        "in",
        "ding"
      ],
      [
        "Ġa",
        "s"
      ],
      [
        "Ġa",
        "ctive"
      ],
      [
        "Ġa",
        "way"
      ],
      [
        "Ġa",
        "bs"
      ],
      [
        "Ġa",
        "utor"
      ],
      [
        "st",
        "ing"
      ],
      [
        "st",
        "ent"
      ],
      [
        "st",
        "and"
      ],
      [
        "Ġt",
        "hing"
      ],
      [
        "nd",
        "er"
      ],
      [
        "se",
        "ly"
      ],
      [
        "se",
        "lf"
      ],
      [
        "le",
        "ct"
      ],
      [
        "Ġm",
        "on"
      ],
      [
        "Ġm",
        "uch"
      ],
      [
        "te",
        "p"
      ],
      [
        "te",
        "ra"
      ],
      [
        "te",
        "lli"
      ],
      [
        "te",
        "rns"
      ],
      [
        "Ġin",
        "fe"
      ],
      [
        "Ġin",
        "ten"
      ],
      [
        "Ġin",
        "iti"
      ],
      [
        "Ġin",
        "to"
      ],
      [
        "Ġin",
        "telli"
      ],
      [
        "Ġi",
        "f"
      ],
      [
        "Ġi",
        "t"
      ],
      [
        "Ġi",
        "tera"
      ],
      [
        "he",
        "n"
      ],
      [
        "he",
        "si"
      ],
      [
        "he",
        "ma"
      ],
      [
        "or",
        "s"
      ],
      [
        "Ġb",
        "re"
      ],
      [
        "Ġb",
        "right"
      ],
      [
        "Ġb",
        "and"
      ],
      [
        "ti",
        "cal"
      ],
      [
        "ti",
        "fic"
      ],
      [
        "ar",
        "m"
      ],
      [
        "ar",
        "se"
      ],
      [
        "ar",
        "ning"
      ],
      [
        "lo",
        "pes"
      ],
      [
        "lo",
        "bal"
      ],
      [
        "lo",
        "sely"
      ],
      [
        "Ġc",
        "lock"
      ],
      [
        "Ġc",
        "al"
      ],
      [
        "Ġc",
        "ro"
      ],
      [
        "Ġc",
        "ard"
      ],
      [
        "Ġc",
        "losely"
      ],
      [
        "Ġto",
        "ols"
      ],
      [
        "ct",
        "ures"
      ],
      [
        "Ġs",
        "cript"
      ],
      [
        "Ġs",
        "ub"
      ],
      [
        "Ġs",
        "ust"
      ],
      [
        "Ġs",
        "ma"
      ],
      [
        "Ġs",
        "moo"
      ],
      [
        "Ġs",
        "lopes"
      ],
      [
        "ĠT",
        "ake"
      ],
      [
        "at",
        "h"
      ],
      [
        "at",
        "ural"
      ],
      [
        "at",
        "terns"
      ],
      [
        "an",
        "ce"
      ],
      [
        "an",
        "ging"
      ],
      [
        "an",
        "tast"
      ],
      [
        "Ġme",
        "tric"
      ],
      [
        "Ġw",
        "ri"
      ],
      [
        "Ġw",
        "ith"
      ],
      [
        "Ġw",
        "ill"
      ],
      [
        "Ġw",
        "hen"
      ],
      [
        "Ġw",
        "arm"
      ],
      [
        "ra",
        "te"
      ],
      [
        "Ġthe",
        "y"
      ],
      [
        "on",
        "si"
      ],
      [
        "on",
        "ment"
      ],
      [
        "li",
        "te"
      ],
      [
        "li",
        "dation"
      ],
      [
        "it",
        "or"
      ],
      [
        "Ġe",
        "ve"
      ],
      [
        "Ġe",
        "qu"
      ],
      [
        "Ġe",
        "xce"
      ],
      [
        "Ġe",
        "lect"
      ],
      [
        "Ġe",
        "lite"
      ],
      [
        "ack",
        "ets"
      ],
      [
        "ĠThe",
        "re"
      ],
      [
        "Ġh",
        "igh"
      ],
      [
        "Ġh",
        "anging"
      ],
      [
        "ent",
        "ro"
      ],
      [
        "ch",
        "ite"
      ],
      [
        "si",
        "ve"
      ],
      [
        "Ġal",
        "ways"
      ],
      [
        "Ġal",
        "gor"
      ],
      [
        "Ġco",
        "mm"
      ],
      [
        "Ġco",
        "mp"
      ],
      [
        "ĠW",
        "hy"
      ],
      [
        "Ġf",
        "ro"
      ],
      [
        "Ġf",
        "unction"
      ],
      [
        "Ġf",
        "inding"
      ],
      [
        "Ġar",
        "tific"
      ],
      [
        "Ġar",
        "chite"
      ],
      [
        "Ġde",
        "scent"
      ],
      [
        "Ġwor",
        "ld"
      ],
      [
        "Ġwor",
        "ks"
      ],
      [
        "Ġwor",
        "kst"
      ],
      [
        "lu",
        "tions"
      ],
      [
        "ri",
        "x"
      ],
      [
        "ĠC",
        "onsi"
      ],
      [
        "Ġpro",
        "ject"
      ],
      [
        "Ġpro",
        "gra"
      ],
      [
        "ĠS",
        "tep"
      ],
      [
        "ve",
        "rs"
      ],
      [
        "Ġha",
        "s"
      ],
      [
        "Ġha",
        "ve"
      ],
      [
        "du",
        "lar"
      ],
      [
        "Ġu",
        "nder"
      ],
      [
        "iz",
        "er"
      ],
      [
        "miz",
        "ed"
      ],
      [
        "Ġop",
        "en"
      ],
      [
        "la",
        "tions"
      ],
      [
        "la",
        "sse"
      ],
      [
        "ect",
        "ly"
      ],
      [
        "Ġmat",
        "hema"
      ],
      [
        "Ġmat",
        "rix"
      ],
      [
        "Ġoptimiz",
        "ing"
      ],
      [
        "Ġstruct",
        "ures"
      ],
      [
        "ene",
        "rate"
      ],
      [
        "Ġpredi",
        "ction"
      ],
      [
        "Ġstructura",
        "l"
      ],
      [
        "Ġd",
        "ir"
      ],
      [
        "Ġd",
        "ash"
      ],
      [
        "Ġd",
        "igit"
      ],
      [
        "Ġd",
        "ynam"
      ],
      [
        "Ġse",
        "ns"
      ],
      [
        "Ġan",
        "aly"
      ],
      [
        "Ġat",
        "ten"
      ],
      [
        "Ġat",
        "mo"
      ],
      [
        "Ġn",
        "ice"
      ],
      [
        "Ġn",
        "ominal"
      ],
      [
        "Ġn",
        "atural"
      ],
      [
        "th",
        "ly"
      ],
      [
        "Ġlo",
        "ve"
      ],
      [
        "Ġlo",
        "cally"
      ],
      [
        "Ġwe",
        "ar"
      ],
      [
        "Ġg",
        "lobal"
      ],
      [
        "Ġg",
        "lasse"
      ],
      [
        "Ġg",
        "enerate"
      ],
      [
        "re",
        "en"
      ],
      [
        "ĠP",
        "ro"
      ],
      [
        "ĠB",
        "al"
      ],
      [
        "ĠB",
        "eca"
      ],
      [
        "Ġp",
        "arse"
      ],
      [
        "Ġp",
        "atterns"
      ],
      [
        "Ġp",
        "ackets"
      ],
      [
        "Ġte",
        "rminal"
      ],
      [
        "Ġte",
        "sting"
      ],
      [
        "ĠG",
        "PU"
      ],
      [
        "Ġon",
        "e"
      ],
      [
        "Ġam",
        "bient"
      ],
      [
        "ĠA",
        "I"
      ],
      [
        "ĠA",
        "ll"
      ],
      [
        "ĠA",
        "PIs"
      ],
      [
        "ĠA",
        "lways"
      ],
      [
        "ĠY",
        "ou"
      ],
      [
        "Ġen",
        "jo"
      ],
      [
        "Ġen",
        "vir"
      ],
      [
        "Ġmin",
        "ute"
      ],
      [
        "Ġmin",
        "imum"
      ],
      [
        "Ġso",
        "lve"
      ],
      [
        "Ġso",
        "lutions"
      ],
      [
        "Ġsy",
        "nt"
      ],
      [
        "Ġfi",
        "ve"
      ],
      [
        "Ġhelp",
        "ing"
      ],
      [
        "Ġhelp",
        "ful"
      ],
      [
        "and",
        "s"
      ],
      [
        "Ġla",
        "yers"
      ],
      [
        "Ġmo",
        "dular"
      ],
      [
        "Ġmy",
        "self"
      ],
      [
        "Ġbe",
        "en"
      ],
      [
        "Ġtoken",
        "izer"
      ],
      [
        "Ġho",
        "ld"
      ],
      [
        "ric",
        "ity"
      ],
      [
        "Ġclear",
        "ly"
      ],
      [
        "Ġne",
        "ed"
      ],
      [
        "Ġne",
        "ural"
      ],
      [
        "Ġne",
        "twor"
      ],
      [
        "Ġsyste",
        "m"
      ],
      [
        "gra",
        "mm"
      ],
      [
        "ute",
        "r"
      ],
      [
        "wor",
        "d"
      ],
      [
        "ĠF",
        "or"
      ],
      [
        "ĠF",
        "antast"
      ],
      [
        "ĠNo",
        "t"
      ],
      [
        "Ġma",
        "pp"
      ],
      [
        "Ġma",
        "ximum"
      ],
      [
        "Ġback",
        "end"
      ],
      [
        "Ġcon",
        "su"
      ],
      [
        "Ġcon",
        "vers"
      ],
      [
        "Ġchat",
        "ting"
      ],
      [
        "Ġcur",
        "rent"
      ],
      [
        "Ġcur",
        "ves"
      ],
      [
        "Ġsc",
        "ience"
      ],
      [
        "Ġsc",
        "reen"
      ],
      [
        "Ġspe",
        "ed"
      ],
      [
        "Ġspe",
        "cif"
      ],
      [
        "Ġstrea",
        "ms"
      ],
      [
        "Ġstrea",
        "ming"
      ],
      [
        "ith",
        "ms"
      ],
      [
        "Ġloo",
        "ks"
      ],
      [
        "Ġloo",
        "ps"
      ],
      [
        "Ġgra",
        "dient"
      ],
      [
        "Ġgra",
        "phic"
      ],
      [
        "Ġbuild",
        "s"
      ],
      [
        "Ġbuild",
        "ing"
      ],
      [
        "Ġcusto",
        "m"
      ],
      [
        "Ġcusto",
        "mized"
      ],
      [
        "ali",
        "zed"
      ],
      [
        "bo",
        "ard"
      ],
      [
        "cu",
        "lations"
      ],
      [
        "eg",
        "res"
      ],
      [
        "mme",
        "rs"
      ],
      [
        "olu",
        "te"
      ],
      [
        "ption",
        "al"
      ],
      [
        "ryth",
        "ing"
      ],
      [
        "sou",
        "rce"
      ],
      [
        "spe",
        "ed"
      ],
      [
        "sphe",
        "ric"
      ],
      [
        "Ġle",
        "arning"
      ],
      [
        "Ġva",
        "lidation"
      ],
      [
        "Ġge",
        "t"
      ],
      [
        "Ġpe",
        "ople"
      ],
      [
        "Ġrea",
        "dy"
      ],
      [
        "Ġabs",
        "olute"
      ],
      [
        "Ġautor",
        "egres"
      ],
      [
        "Ġthing",
        "s"
      ],
      [
        "Ġmon",
        "itor"
      ],
      [
        "Ġinfe",
        "rence"
      ],
      [
        "Ġinten",
        "se"
      ],
      [
        "Ġiniti",
        "alized"
      ],
      [
        "Ġintelli",
        "gence"
      ],
      [
        "Ġitera",
        "tion"
      ],
      [
        "hesi",
        "zed"
      ],
      [
        "Ġbre",
        "ath"
      ],
      [
        "Ġband",
        "width"
      ],
      [
        "Ġcal",
        "culations"
      ],
      [
        "Ġcro",
        "ss"
      ],
      [
        "Ġscript",
        "s"
      ],
      [
        "Ġsust",
        "ain"
      ],
      [
        "Ġsma",
        "ll"
      ],
      [
        "Ġsmoo",
        "thly"
      ],
      [
        "Ġmetric",
        "s"
      ],
      [
        "Ġwri",
        "te"
      ],
      [
        "Ġeve",
        "rything"
      ],
      [
        "Ġequ",
        "ations"
      ],
      [
        "Ġexce",
        "ptional"
      ],
      [
        "Ġelect",
        "ricity"
      ],
      [
        "entro",
        "py"
      ],
      [
        "Ġalgor",
        "ithms"
      ],
      [
        "Ġcomm",
        "ands"
      ],
      [
        "Ġcomp",
        "uter"
      ],
      [
        "Ġfro",
        "m"
      ],
      [
        "Ġartific",
        "ial"
      ],
      [
        "Ġarchite",
        "ctures"
      ],
      [
        "Ġworkst",
        "ation"
      ],
      [
        "ĠConsi",
        "stent"
      ],
      [
        "Ġprogra",
        "mmers"
      ],
      [
        "Ġunder",
        "stand"
      ],
      [
        "Ġmathema",
        "tical"
      ],
      [
        "Ġprediction",
        "s"
      ],
      [
        "Ġdir",
        "ectly"
      ],
      [
        "Ġdash",
        "board"
      ],
      [
        "Ġdigit",
        "al"
      ],
      [
        "Ġdynam",
        "ically"
      ],
      [
        "Ġsens",
        "ors"
      ],
      [
        "Ġanaly",
        "zing"
      ],
      [
        "Ġatten",
        "tion"
      ],
      [
        "Ġatmo",
        "spheric"
      ],
      [
        "Ġglasse",
        "s"
      ],
      [
        "ĠPro",
        "gramm"
      ],
      [
        "ĠBal",
        "ance"
      ],
      [
        "ĠBeca",
        "use"
      ],
      [
        "Ġenjo",
        "y"
      ],
      [
        "Ġenvir",
        "onment"
      ],
      [
        "Ġminute",
        "s"
      ],
      [
        "Ġsynt",
        "hesized"
      ],
      [
        "Ġnetwor",
        "k"
      ],
      [
        "ĠFantast",
        "ic"
      ],
      [
        "Ġmapp",
        "ing"
      ],
      [
        "Ġconsu",
        "me"
      ],
      [
        "Ġconvers",
        "ations"
      ],
      [
        "Ġspecif",
        "ically"
      ],
      [
        "Ġgraphic",
        "s"
      ],
      [
        "Ġautoregres",
        "sive"
      ],
      [
        "ĠProgramm",
        "ing"
      ],
      [
        "6",
        "0"
      ],
      [
        "8",
        "0"
      ],
      [
        "4",
        "0"
      ],
      [
        "2",
        "0"
      ],
      [
        "3",
        "2"
      ],
      [
        "6",
        "8"
      ],
      [
        "1",
        "2"
      ],
      [
        "5",
        "0"
      ],
      [
        "Ġ12",
        "4"
      ],
      [
        "Ġ11",
        "0"
      ],
      [
        "Ġ11",
        "5"
      ],
      [
        "Ġ11",
        "7"
      ],
      [
        "Ġ11",
        "8"
      ],
      [
        "9",
        "6"
      ],
      [
        "3",
        "6"
      ],
      [
        "Ġ10",
        "2"
      ],
      [
        "Ġ10",
        "6"
      ],
      [
        "Ġ12",
        "3"
      ],
      [
        "5",
        "6"
      ],
      [
        "7",
        "2"
      ],
      [
        "Ġ10",
        "1"
      ],
      [
        "Ġ10",
        "9"
      ],
      [
        "0",
        "4"
      ],
      [
        "6",
        "4"
      ],
      [
        "Ġ10",
        "8"
      ],
      [
        "Ġ11",
        "3"
      ],
      [
        "e",
        "ll"
      ],
      [
        "ĠT",
        "ell"
      ],
      [
        "ĠW",
        "ho"
      ],
      [
        "ĠG",
        "ive"
      ],
      [
        "Ġ10",
        "7"
      ],
      [
        "Ġ12",
        "0"
      ],
      [
        "Ġ11",
        "1"
      ],
      [
        "Ġ11",
        "2"
      ],
      [
        "Ġ11",
        "9"
      ],
      [
        "ĠA",
        "re"
      ],
      [
        "ĠHe",
        "lp"
      ],
      [
        "3",
        "0"
      ],
      [
        "8",
        "4"
      ],
      [
        "Ġ10",
        "3"
      ],
      [
        "Ġ10",
        "4"
      ],
      [
        "Ġ12",
        "1"
      ],
      [
        "Ġ12",
        "5"
      ],
      [
        "Ġ12",
        "6"
      ],
      [
        "Ġ12",
        "7"
      ],
      [
        "Ġ13",
        "0"
      ],
      [
        "0",
        "8"
      ],
      [
        "2",
        "5"
      ],
      [
        "5",
        "2"
      ],
      [
        "8",
        "8"
      ],
      [
        "Ġ14",
        "4"
      ],
      [
        "Ġ15",
        "6"
      ],
      [
        "1",
        "4"
      ],
      [
        "2",
        "4"
      ],
      [
        "Ġ15",
        "1"
      ],
      [
        "Ġ15",
        "7"
      ],
      [
        "1",
        "0"
      ],
      [
        "8",
        "7"
      ],
      [
        "Ġ10",
        "5"
      ],
      [
        "Ġ13",
        "2"
      ],
      [
        "Ġ13",
        "3"
      ],
      [
        "Ġ13",
        "7"
      ],
      [
        "Ġ14",
        "0"
      ],
      [
        "Ġ14",
        "2"
      ],
      [
        "Ġ14",
        "8"
      ],
      [
        "9",
        "0"
      ],
      [
        "Ġ13",
        "1"
      ],
      [
        "Ġ13",
        "9"
      ],
      [
        "Ġ14",
        "7"
      ],
      [
        "Ġ16",
        "0"
      ],
      [
        "Ġ16",
        "4"
      ],
      [
        "1",
        "8"
      ],
      [
        "3",
        "5"
      ],
      [
        "5",
        "4"
      ],
      [
        "7",
        "0"
      ],
      [
        "7",
        "5"
      ],
      [
        "9",
        "2"
      ],
      [
        "Ġ12",
        "2"
      ],
      [
        "Ġ11",
        "4"
      ],
      [
        "Ġ13",
        "5"
      ],
      [
        "Ġ13",
        "6"
      ],
      [
        "Ġ13",
        "8"
      ],
      [
        "Ġ14",
        "9"
      ],
      [
        "Ġ15",
        "3"
      ],
      [
        "Ġ17",
        "8"
      ],
      [
        "1",
        "6"
      ],
      [
        "2",
        "2"
      ],
      [
        "3",
        "4"
      ],
      [
        "4",
        "4"
      ],
      [
        "4",
        "8"
      ],
      [
        "7",
        "6"
      ],
      [
        "9",
        "4"
      ],
      [
        "Ġ12",
        "9"
      ],
      [
        "Ġ14",
        "1"
      ],
      [
        "Ġ15",
        "4"
      ],
      [
        "Ġ15",
        "9"
      ],
      [
        "Ġ18",
        "6"
      ],
      [
        "4",
        "6"
      ],
      [
        "5",
        "1"
      ],
      [
        "6",
        "5"
      ],
      [
        "Ġ12",
        "8"
      ],
      [
        "Ġ13",
        "4"
      ],
      [
        "Ġ14",
        "3"
      ],
      [
        "Ġ15",
        "0"
      ],
      [
        "Ġ15",
        "8"
      ],
      [
        "Ġ16",
        "6"
      ],
      [
        "Ġ16",
        "8"
      ],
      [
        "Ġ16",
        "9"
      ],
      [
        "Ġ17",
        "3"
      ],
      [
        "Ġ17",
        "5"
      ],
      [
        "1",
        "7"
      ],
      [
        "2",
        "6"
      ],
      [
        "4",
        "9"
      ],
      [
        "6",
        "6"
      ],
      [
        "8",
        "5"
      ],
      [
        "Ġ14",
        "5"
      ],
      [
        "Ġ18",
        "0"
      ],
      [
        "0",
        "2"
      ],
      [
        "3",
        "1"
      ],
      [
        "3",
        "8"
      ],
      [
        "4",
        "2"
      ],
      [
        "4",
        "5"
      ],
      [
        "5",
        "3"
      ],
      [
        "5",
        "8"
      ],
      [
        "7",
        "8"
      ],
      [
        "Ġ11",
        "6"
      ],
      [
        "Ġ14",
        "6"
      ],
      [
        "Ġ15",
        "5"
      ],
      [
        "Ġ16",
        "7"
      ],
      [
        "Ġ17",
        "0"
      ],
      [
        "Ġ17",
        "2"
      ],
      [
        "Ġ17",
        "6"
      ],
      [
        "Ġ17",
        "7"
      ],
      [
        "Ġ18",
        "3"
      ],
      [
        "1",
        "1"
      ],
      [
        "1",
        "5"
      ],
      [
        "1",
        "9"
      ],
      [
        "3",
        "7"
      ],
      [
        "4",
        "3"
      ],
      [
        "7",
        "1"
      ],
      [
        "Ġ15",
        "2"
      ],
      [
        "Ġ15",
        "12"
      ],
      [
        "Ġ17",
        "1"
      ],
      [
        "Ġ96",
        "0"
      ],
      [
        "Ġ24",
        "0"
      ],
      [
        "Ġ18",
        "2"
      ],
      [
        "Ġ19",
        "2"
      ],
      [
        "0",
        "6"
      ],
      [
        "2",
        "7"
      ],
      [
        "2",
        "8"
      ],
      [
        "4",
        "7"
      ],
      [
        "5",
        "5"
      ],
      [
        "5",
        "7"
      ],
      [
        "6",
        "2"
      ],
      [
        "7",
        "3"
      ],
      [
        "8",
        "1"
      ],
      [
        "9",
        "5"
      ],
      [
        "Ġ16",
        "1"
      ],
      [
        "Ġ16",
        "3"
      ],
      [
        "Ġ16",
        "5"
      ],
      [
        "Ġ18",
        "1"
      ],
      [
        "Ġ18",
        "4"
      ],
      [
        "Ġ18",
        "8"
      ],
      [
        "Ġ19",
        "04"
      ],
      [
        "Ġ32",
        "4"
      ],
      [
        "Ġ43",
        "20"
      ],
      [
        "Ġ92",
        "4"
      ],
      [
        "Ġ45",
        "0"
      ],
      [
        "Ġ21",
        "12"
      ],
      [
        "Ġ90",
        "0"
      ],
      [
        "Ġ99",
        "0"
      ],
      [
        "Ġ115",
        "2"
      ],
      [
        "0",
        "1"
      ],
      [
        "1",
        "3"
      ],
      [
        "2",
        "1"
      ],
      [
        "2",
        "9"
      ],
      [
        "5",
        "9"
      ],
      [
        "6",
        "7"
      ],
      [
        "6",
        "9"
      ],
      [
        "7",
        "7"
      ],
      [
        "8",
        "2"
      ],
      [
        "8",
        "3"
      ],
      [
        "8",
        "9"
      ],
      [
        "9",
        "3"
      ],
      [
        "9",
        "8"
      ],
      [
        "9",
        "9"
      ],
      [
        "Ġ10",
        "80"
      ],
      [
        "Ġ12",
        "00"
      ],
      [
        "Ġ12",
        "60"
      ],
      [
        "Ġ12",
        "32"
      ],
      [
        "Ġ12",
        "96"
      ],
      [
        "Ġ11",
        "40"
      ],
      [
        "Ġ13",
        "60"
      ],
      [
        "Ġ13",
        "80"
      ],
      [
        "Ġ13",
        "20"
      ],
      [
        "Ġ14",
        "00"
      ],
      [
        "Ġ14",
        "40"
      ],
      [
        "Ġ15",
        "68"
      ],
      [
        "Ġ15",
        "84"
      ],
      [
        "Ġ16",
        "32"
      ],
      [
        "Ġ17",
        "4"
      ],
      [
        "Ġ28",
        "80"
      ],
      [
        "Ġ24",
        "84"
      ],
      [
        "Ġ18",
        "9"
      ],
      [
        "Ġ18",
        "24"
      ],
      [
        "Ġ18",
        "48"
      ],
      [
        "Ġ26",
        "04"
      ],
      [
        "Ġ19",
        "4"
      ],
      [
        "Ġ19",
        "6"
      ],
      [
        "Ġ19",
        "32"
      ],
      [
        "Ġ19",
        "53"
      ],
      [
        "Ġ57",
        "6"
      ],
      [
        "Ġ69",
        "3"
      ],
      [
        "Ġ27",
        "54"
      ],
      [
        "Ġ50",
        "40"
      ],
      [
        "Ġ23",
        "0"
      ],
      [
        "Ġ23",
        "52"
      ],
      [
        "Ġ22",
        "80"
      ],
      [
        "Ġ22",
        "40"
      ],
      [
        "Ġ63",
        "36"
      ],
      [
        "Ġ64",
        "8"
      ],
      [
        "Ġ66",
        "00"
      ],
      [
        "Ġ48",
        "0"
      ],
      [
        "Ġ84",
        "0"
      ],
      [
        "Ġ61",
        "2"
      ],
      [
        "Ġ34",
        "2"
      ],
      [
        "Ġ31",
        "68"
      ],
      [
        "Ġ44",
        "00"
      ],
      [
        "Ġ20",
        "0"
      ],
      [
        "Ġ20",
        "24"
      ],
      [
        "Ġ36",
        "8"
      ],
      [
        "Ġ36",
        "00"
      ],
      [
        "Ġ30",
        "40"
      ],
      [
        "Ġ33",
        "0"
      ],
      [
        "Ġ39",
        "60"
      ],
      [
        "Ġ45",
        "6"
      ],
      [
        "Ġ124",
        "8"
      ],
      [
        "Ġ115",
        "5"
      ],
      [
        "Ġ123",
        "0"
      ],
      [
        "Ġ109",
        "2"
      ],
      [
        "Ġ178",
        "2"
      ],
      [
        "Ġ159",
        "8"
      ],
      [
        "Ġ186",
        "3"
      ],
      [
        "0",
        "9"
      ],
      [
        "2",
        "3"
      ],
      [
        "3",
        "9"
      ],
      [
        "6",
        "1"
      ],
      [
        "7",
        "4"
      ],
      [
        "Ġ10",
        "20"
      ],
      [
        "Ġ13",
        "00"
      ],
      [
        "Ġ13",
        "32"
      ],
      [
        "Ġ14",
        "50"
      ],
      [
        "Ġ14",
        "56"
      ],
      [
        "Ġ15",
        "00"
      ],
      [
        "Ġ15",
        "60"
      ],
      [
        "Ġ16",
        "2"
      ],
      [
        "Ġ16",
        "80"
      ],
      [
        "Ġ16",
        "40"
      ],
      [
        "Ġ16",
        "20"
      ],
      [
        "Ġ16",
        "64"
      ],
      [
        "Ġ16",
        "75"
      ],
      [
        "Ġ16",
        "17"
      ],
      [
        "Ġ17",
        "00"
      ],
      [
        "Ġ17",
        "60"
      ],
      [
        "Ġ17",
        "40"
      ],
      [
        "Ġ17",
        "94"
      ],
      [
        "Ġ40",
        "32"
      ],
      [
        "Ġ40",
        "04"
      ],
      [
        "Ġ28",
        "60"
      ],
      [
        "Ġ28",
        "12"
      ],
      [
        "Ġ28",
        "56"
      ],
      [
        "Ġ28",
        "08"
      ],
      [
        "Ġ28",
        "35"
      ],
      [
        "Ġ28",
        "71"
      ],
      [
        "Ġ28",
        "81"
      ],
      [
        "Ġ96",
        "6"
      ],
      [
        "Ġ24",
        "00"
      ],
      [
        "Ġ24",
        "96"
      ],
      [
        "Ġ24",
        "64"
      ],
      [
        "Ġ24",
        "30"
      ],
      [
        "Ġ24",
        "94"
      ],
      [
        "Ġ24",
        "42"
      ],
      [
        "Ġ24",
        "57"
      ],
      [
        "Ġ18",
        "60"
      ],
      [
        "Ġ18",
        "20"
      ],
      [
        "Ġ18",
        "36"
      ],
      [
        "Ġ18",
        "72"
      ],
      [
        "Ġ26",
        "4"
      ],
      [
        "Ġ26",
        "00"
      ],
      [
        "Ġ26",
        "88"
      ],
      [
        "Ġ26",
        "46"
      ],
      [
        "Ġ19",
        "0"
      ],
      [
        "Ġ19",
        "5"
      ],
      [
        "Ġ19",
        "00"
      ],
      [
        "Ġ19",
        "76"
      ],
      [
        "Ġ19",
        "43"
      ],
      [
        "Ġ57",
        "96"
      ],
      [
        "Ġ27",
        "0"
      ],
      [
        "Ġ27",
        "2"
      ],
      [
        "Ġ27",
        "88"
      ],
      [
        "Ġ27",
        "14"
      ],
      [
        "Ġ32",
        "68"
      ],
      [
        "Ġ32",
        "64"
      ],
      [
        "Ġ32",
        "90"
      ],
      [
        "Ġ32",
        "34"
      ],
      [
        "Ġ62",
        "64"
      ],
      [
        "Ġ50",
        "4"
      ],
      [
        "Ġ97",
        "02"
      ],
      [
        "Ġ23",
        "25"
      ],
      [
        "Ġ23",
        "14"
      ],
      [
        "Ġ23",
        "10"
      ],
      [
        "Ġ23",
        "87"
      ],
      [
        "Ġ23",
        "76"
      ],
      [
        "Ġ22",
        "00"
      ],
      [
        "Ġ22",
        "36"
      ],
      [
        "Ġ22",
        "56"
      ],
      [
        "Ġ22",
        "94"
      ],
      [
        "Ġ42",
        "0"
      ],
      [
        "Ġ42",
        "00"
      ],
      [
        "Ġ63",
        "00"
      ],
      [
        "Ġ64",
        "4"
      ],
      [
        "Ġ64",
        "17"
      ],
      [
        "Ġ66",
        "5"
      ],
      [
        "Ġ67",
        "2"
      ],
      [
        "Ġ72",
        "0"
      ],
      [
        "Ġ79",
        "68"
      ],
      [
        "Ġ48",
        "00"
      ],
      [
        "Ġ84",
        "5"
      ],
      [
        "Ġ25",
        "55"
      ],
      [
        "Ġ73",
        "6"
      ],
      [
        "Ġ61",
        "0"
      ],
      [
        "Ġ34",
        "4"
      ],
      [
        "Ġ88",
        "4"
      ],
      [
        "Ġ58",
        "5"
      ],
      [
        "Ġ58",
        "8"
      ],
      [
        "Ġ31",
        "36"
      ],
      [
        "Ġ60",
        "0"
      ],
      [
        "Ġ60",
        "8"
      ],
      [
        "Ġ60",
        "35"
      ],
      [
        "Ġ43",
        "2"
      ],
      [
        "Ġ43",
        "4"
      ],
      [
        "Ġ55",
        "2"
      ],
      [
        "Ġ55",
        "00"
      ],
      [
        "Ġ55",
        "44"
      ],
      [
        "Ġ55",
        "51"
      ],
      [
        "Ġ37",
        "8"
      ],
      [
        "Ġ37",
        "00"
      ],
      [
        "Ġ37",
        "60"
      ],
      [
        "Ġ44",
        "8"
      ],
      [
        "Ġ44",
        "50"
      ],
      [
        "Ġ44",
        "16"
      ],
      [
        "Ġ44",
        "85"
      ],
      [
        "Ġ44",
        "73"
      ],
      [
        "Ġ100",
        "0"
      ],
      [
        "Ġ20",
        "00"
      ],
      [
        "Ġ20",
        "46"
      ],
      [
        "Ġ20",
        "58"
      ],
      [
        "Ġ38",
        "4"
      ],
      [
        "Ġ38",
        "5"
      ],
      [
        "Ġ38",
        "88"
      ],
      [
        "Ġ38",
        "27"
      ],
      [
        "Ġ93",
        "0"
      ],
      [
        "Ġ36",
        "0"
      ],
      [
        "Ġ36",
        "80"
      ],
      [
        "Ġ71",
        "2"
      ],
      [
        "Ġ54",
        "6"
      ],
      [
        "Ġ54",
        "60"
      ],
      [
        "Ġ46",
        "0"
      ],
      [
        "Ġ46",
        "8"
      ],
      [
        "Ġ46",
        "50"
      ],
      [
        "Ġ30",
        "8"
      ],
      [
        "Ġ30",
        "80"
      ],
      [
        "Ġ30",
        "96"
      ],
      [
        "Ġ30",
        "69"
      ],
      [
        "Ġ33",
        "60"
      ],
      [
        "Ġ33",
        "66"
      ],
      [
        "Ġ89",
        "6"
      ],
      [
        "Ġ77",
        "35"
      ],
      [
        "Ġ39",
        "2"
      ],
      [
        "Ġ39",
        "6"
      ],
      [
        "Ġ83",
        "30"
      ],
      [
        "Ġ45",
        "5"
      ],
      [
        "Ġ45",
        "00"
      ],
      [
        "Ġ75",
        "4"
      ],
      [
        "Ġ21",
        "0"
      ],
      [
        "Ġ21",
        "6"
      ],
      [
        "Ġ21",
        "00"
      ],
      [
        "Ġ21",
        "60"
      ],
      [
        "Ġ47",
        "52"
      ],
      [
        "Ġ29",
        "40"
      ],
      [
        "Ġ41",
        "54"
      ],
      [
        "Ġ94",
        "6"
      ],
      [
        "Ġ82",
        "8"
      ],
      [
        "Ġ51",
        "20"
      ],
      [
        "Ġ51",
        "84"
      ],
      [
        "Ġ80",
        "0"
      ],
      [
        "Ġ35",
        "50"
      ],
      [
        "Ġ98",
        "6"
      ],
      [
        "Ġ52",
        "47"
      ],
      [
        "Ġ124",
        "2"
      ],
      [
        "Ġ110",
        "5"
      ],
      [
        "Ġ115",
        "6"
      ],
      [
        "Ġ118",
        "8"
      ],
      [
        "Ġ109",
        "5"
      ],
      [
        "Ġ113",
        "4"
      ],
      [
        "Ġ119",
        "7"
      ],
      [
        "Ġ121",
        "5"
      ],
      [
        "Ġ127",
        "5"
      ],
      [
        "Ġ140",
        "6"
      ],
      [
        "Ġ142",
        "8"
      ],
      [
        "Ġ138",
        "6"
      ],
      [
        "Ġ178",
        "6"
      ],
      [
        "Ġ175",
        "5"
      ],
      [
        "Ġ180",
        "5"
      ],
      [
        "Ġ176",
        "9"
      ],
      [
        "Ġ240",
        "9"
      ],
      [
        "0",
        "5"
      ],
      [
        "0",
        "7"
      ],
      [
        "7",
        "9"
      ],
      [
        "9",
        "1"
      ],
      [
        "9",
        "7"
      ],
      [
        "Ġ10",
        "32"
      ],
      [
        "Ġ10",
        "12"
      ],
      [
        "Ġ10",
        "36"
      ],
      [
        "Ġ10",
        "56"
      ],
      [
        "Ġ12",
        "40"
      ],
      [
        "Ġ12",
        "50"
      ],
      [
        "Ġ12",
        "72"
      ],
      [
        "Ġ12",
        "64"
      ],
      [
        "Ġ12",
        "25"
      ],
      [
        "Ġ12",
        "88"
      ],
      [
        "Ġ12",
        "24"
      ],
      [
        "Ġ12",
        "87"
      ],
      [
        "Ġ12",
        "90"
      ],
      [
        "Ġ12",
        "92"
      ],
      [
        "Ġ11",
        "00"
      ],
      [
        "Ġ11",
        "60"
      ],
      [
        "Ġ11",
        "20"
      ],
      [
        "Ġ11",
        "96"
      ],
      [
        "Ġ11",
        "66"
      ],
      [
        "Ġ13",
        "68"
      ],
      [
        "Ġ13",
        "12"
      ],
      [
        "Ġ13",
        "50"
      ],
      [
        "Ġ13",
        "72"
      ],
      [
        "Ġ13",
        "64"
      ],
      [
        "Ġ13",
        "44"
      ],
      [
        "Ġ14",
        "80"
      ],
      [
        "Ġ14",
        "72"
      ],
      [
        "Ġ14",
        "04"
      ],
      [
        "Ġ14",
        "08"
      ],
      [
        "Ġ14",
        "52"
      ],
      [
        "Ġ15",
        "20"
      ],
      [
        "Ġ15",
        "50"
      ],
      [
        "Ġ15",
        "96"
      ],
      [
        "Ġ15",
        "36"
      ],
      [
        "Ġ15",
        "04"
      ],
      [
        "Ġ15",
        "30"
      ],
      [
        "Ġ15",
        "25"
      ],
      [
        "Ġ15",
        "87"
      ],
      [
        "Ġ15",
        "51"
      ],
      [
        "Ġ16",
        "50"
      ],
      [
        "Ġ16",
        "25"
      ],
      [
        "Ġ16",
        "10"
      ],
      [
        "Ġ16",
        "34"
      ],
      [
        "Ġ16",
        "38"
      ],
      [
        "Ġ16",
        "15"
      ],
      [
        "Ġ17",
        "9"
      ],
      [
        "Ġ17",
        "20"
      ],
      [
        "Ġ17",
        "04"
      ],
      [
        "Ġ17",
        "64"
      ],
      [
        "Ġ17",
        "25"
      ],
      [
        "Ġ17",
        "75"
      ],
      [
        "Ġ17",
        "16"
      ],
      [
        "Ġ17",
        "22"
      ],
      [
        "Ġ17",
        "34"
      ],
      [
        "Ġ17",
        "48"
      ],
      [
        "Ġ17",
        "49"
      ],
      [
        "Ġ17",
        "42"
      ],
      [
        "Ġ40",
        "0"
      ],
      [
        "Ġ40",
        "2"
      ],
      [
        "Ġ40",
        "5"
      ],
      [
        "Ġ40",
        "8"
      ],
      [
        "Ġ40",
        "20"
      ],
      [
        "Ġ40",
        "12"
      ],
      [
        "Ġ40",
        "50"
      ],
      [
        "Ġ40",
        "87"
      ],
      [
        "Ġ40",
        "18"
      ],
      [
        "Ġ40",
        "92"
      ],
      [
        "Ġ40",
        "26"
      ],
      [
        "Ġ40",
        "85"
      ],
      [
        "Ġ40",
        "02"
      ],
      [
        "Ġ40",
        "42"
      ],
      [
        "Ġ40",
        "71"
      ],
      [
        "Ġ40",
        "95"
      ],
      [
        "Ġ40",
        "29"
      ],
      [
        "Ġ40",
        "59"
      ],
      [
        "Ġ40",
        "74"
      ],
      [
        "Ġ28",
        "0"
      ],
      [
        "Ġ28",
        "2"
      ],
      [
        "Ġ28",
        "5"
      ],
      [
        "Ġ28",
        "6"
      ],
      [
        "Ġ28",
        "7"
      ],
      [
        "Ġ28",
        "8"
      ],
      [
        "Ġ28",
        "50"
      ],
      [
        "Ġ28",
        "52"
      ],
      [
        "Ġ28",
        "70"
      ],
      [
        "Ġ28",
        "16"
      ],
      [
        "Ġ28",
        "22"
      ],
      [
        "Ġ28",
        "44"
      ],
      [
        "Ġ28",
        "47"
      ],
      [
        "Ġ28",
        "62"
      ],
      [
        "Ġ28",
        "13"
      ],
      [
        "Ġ28",
        "21"
      ],
      [
        "Ġ28",
        "29"
      ],
      [
        "Ġ28",
        "67"
      ],
      [
        "Ġ28",
        "98"
      ],
      [
        "Ġ96",
        "2"
      ],
      [
        "Ġ96",
        "9"
      ],
      [
        "Ġ96",
        "00"
      ],
      [
        "Ġ24",
        "3"
      ],
      [
        "Ġ24",
        "4"
      ],
      [
        "Ġ24",
        "20"
      ],
      [
        "Ġ24",
        "32"
      ],
      [
        "Ġ24",
        "08"
      ],
      [
        "Ġ24",
        "14"
      ],
      [
        "Ġ24",
        "18"
      ],
      [
        "Ġ24",
        "75"
      ],
      [
        "Ġ24",
        "51"
      ],
      [
        "Ġ24",
        "49"
      ],
      [
        "Ġ24",
        "99"
      ],
      [
        "Ġ24",
        "91"
      ],
      [
        "Ġ18",
        "5"
      ],
      [
        "Ġ18",
        "7"
      ],
      [
        "Ġ18",
        "00"
      ],
      [
        "Ġ18",
        "50"
      ],
      [
        "Ġ18",
        "56"
      ],
      [
        "Ġ18",
        "30"
      ],
      [
        "Ġ18",
        "25"
      ],
      [
        "Ġ18",
        "87"
      ],
      [
        "Ġ18",
        "90"
      ],
      [
        "Ġ18",
        "70"
      ],
      [
        "Ġ18",
        "92"
      ],
      [
        "Ġ18",
        "85"
      ],
      [
        "Ġ18",
        "43"
      ],
      [
        "Ġ26",
        "5"
      ],
      [
        "Ġ26",
        "7"
      ],
      [
        "Ġ26",
        "80"
      ],
      [
        "Ġ26",
        "32"
      ],
      [
        "Ġ26",
        "68"
      ],
      [
        "Ġ26",
        "50"
      ],
      [
        "Ġ26",
        "84"
      ],
      [
        "Ġ26",
        "52"
      ],
      [
        "Ġ26",
        "24"
      ],
      [
        "Ġ26",
        "22"
      ],
      [
        "Ġ26",
        "66"
      ],
      [
        "Ġ26",
        "19"
      ],
      [
        "Ġ26",
        "27"
      ],
      [
        "Ġ26",
        "95"
      ],
      [
        "Ġ26",
        "39"
      ],
      [
        "Ġ19",
        "1"
      ],
      [
        "Ġ19",
        "3"
      ],
      [
        "Ġ19",
        "8"
      ],
      [
        "Ġ19",
        "60"
      ],
      [
        "Ġ19",
        "80"
      ],
      [
        "Ġ19",
        "40"
      ],
      [
        "Ġ19",
        "20"
      ],
      [
        "Ġ19",
        "68"
      ],
      [
        "Ġ19",
        "36"
      ],
      [
        "Ġ19",
        "72"
      ],
      [
        "Ġ19",
        "14"
      ],
      [
        "Ġ19",
        "24"
      ],
      [
        "Ġ19",
        "44"
      ],
      [
        "Ġ19",
        "17"
      ],
      [
        "Ġ19",
        "38"
      ],
      [
        "Ġ19",
        "78"
      ],
      [
        "Ġ19",
        "11"
      ],
      [
        "Ġ81",
        "2"
      ],
      [
        "Ġ81",
        "6"
      ],
      [
        "Ġ81",
        "9"
      ],
      [
        "Ġ81",
        "60"
      ],
      [
        "Ġ81",
        "88"
      ],
      [
        "Ġ81",
        "18"
      ],
      [
        "Ġ81",
        "34"
      ],
      [
        "Ġ59",
        "2"
      ],
      [
        "Ġ59",
        "4"
      ],
      [
        "Ġ59",
        "5"
      ],
      [
        "Ġ59",
        "8"
      ],
      [
        "Ġ59",
        "80"
      ],
      [
        "Ġ59",
        "84"
      ],
      [
        "Ġ59",
        "16"
      ],
      [
        "Ġ59",
        "22"
      ],
      [
        "Ġ59",
        "34"
      ],
      [
        "Ġ59",
        "76"
      ],
      [
        "Ġ57",
        "0"
      ],
      [
        "Ġ57",
        "2"
      ],
      [
        "Ġ57",
        "00"
      ],
      [
        "Ġ57",
        "60"
      ],
      [
        "Ġ57",
        "40"
      ],
      [
        "Ġ57",
        "72"
      ],
      [
        "Ġ57",
        "51"
      ],
      [
        "Ġ57",
        "85"
      ],
      [
        "Ġ57",
        "62"
      ],
      [
        "Ġ57",
        "95"
      ],
      [
        "Ġ57",
        "82"
      ],
      [
        "Ġ57",
        "23"
      ],
      [
        "Ġ69",
        "0"
      ],
      [
        "Ġ69",
        "6"
      ],
      [
        "Ġ69",
        "00"
      ],
      [
        "Ġ69",
        "72"
      ],
      [
        "Ġ69",
        "35"
      ],
      [
        "Ġ27",
        "6"
      ],
      [
        "Ġ27",
        "9"
      ],
      [
        "Ġ27",
        "60"
      ],
      [
        "Ġ27",
        "20"
      ],
      [
        "Ġ27",
        "36"
      ],
      [
        "Ġ27",
        "56"
      ],
      [
        "Ġ27",
        "72"
      ],
      [
        "Ġ27",
        "84"
      ],
      [
        "Ġ27",
        "65"
      ],
      [
        "Ġ27",
        "38"
      ],
      [
        "Ġ27",
        "59"
      ],
      [
        "Ġ27",
        "74"
      ],
      [
        "Ġ32",
        "2"
      ],
      [
        "Ġ32",
        "3"
      ],
      [
        "Ġ32",
        "5"
      ],
      [
        "Ġ32",
        "8"
      ],
      [
        "Ġ32",
        "40"
      ],
      [
        "Ġ32",
        "30"
      ],
      [
        "Ġ32",
        "25"
      ],
      [
        "Ġ32",
        "76"
      ],
      [
        "Ġ32",
        "49"
      ],
      [
        "Ġ32",
        "37"
      ],
      [
        "Ġ32",
        "13"
      ],
      [
        "Ġ32",
        "83"
      ],
      [
        "Ġ62",
        "0"
      ],
      [
        "Ġ62",
        "4"
      ],
      [
        "Ġ62",
        "5"
      ],
      [
        "Ġ62",
        "7"
      ],
      [
        "Ġ62",
        "00"
      ],
      [
        "Ġ62",
        "32"
      ],
      [
        "Ġ62",
        "72"
      ],
      [
        "Ġ62",
        "70"
      ],
      [
        "Ġ62",
        "31"
      ],
      [
        "Ġ62",
        "37"
      ],
      [
        "Ġ68",
        "6"
      ],
      [
        "Ġ68",
        "8"
      ],
      [
        "Ġ68",
        "00"
      ],
      [
        "Ġ68",
        "04"
      ],
      [
        "Ġ68",
        "64"
      ],
      [
        "Ġ68",
        "25"
      ],
      [
        "Ġ68",
        "88"
      ],
      [
        "Ġ68",
        "87"
      ],
      [
        "Ġ68",
        "53"
      ],
      [
        "Ġ68",
        "73"
      ],
      [
        "Ġ50",
        "6"
      ],
      [
        "Ġ50",
        "60"
      ],
      [
        "Ġ50",
        "84"
      ],
      [
        "Ġ50",
        "70"
      ],
      [
        "Ġ50",
        "22"
      ],
      [
        "Ġ50",
        "44"
      ],
      [
        "Ġ50",
        "02"
      ],
      [
        "Ġ50",
        "37"
      ],
      [
        "Ġ50",
        "05"
      ],
      [
        "Ġ97",
        "0"
      ],
      [
        "Ġ97",
        "2"
      ],
      [
        "Ġ97",
        "5"
      ],
      [
        "Ġ23",
        "1"
      ],
      [
        "Ġ23",
        "2"
      ],
      [
        "Ġ23",
        "4"
      ],
      [
        "Ġ23",
        "8"
      ],
      [
        "Ġ23",
        "00"
      ],
      [
        "Ġ23",
        "40"
      ],
      [
        "Ġ23",
        "68"
      ],
      [
        "Ġ23",
        "56"
      ],
      [
        "Ġ23",
        "18"
      ],
      [
        "Ġ23",
        "70"
      ],
      [
        "Ġ23",
        "92"
      ],
      [
        "Ġ23",
        "49"
      ],
      [
        "Ġ23",
        "31"
      ],
      [
        "Ġ23",
        "37"
      ],
      [
        "Ġ23",
        "28"
      ],
      [
        "Ġ23",
        "79"
      ],
      [
        "Ġ65",
        "0"
      ],
      [
        "Ġ65",
        "96"
      ],
      [
        "Ġ65",
        "25"
      ],
      [
        "Ġ65",
        "52"
      ],
      [
        "Ġ65",
        "70"
      ],
      [
        "Ġ65",
        "34"
      ],
      [
        "Ġ65",
        "45"
      ],
      [
        "Ġ65",
        "55"
      ],
      [
        "Ġ65",
        "57"
      ],
      [
        "Ġ22",
        "0"
      ],
      [
        "Ġ22",
        "8"
      ],
      [
        "Ġ22",
        "20"
      ],
      [
        "Ġ22",
        "12"
      ],
      [
        "Ġ22",
        "50"
      ],
      [
        "Ġ22",
        "96"
      ],
      [
        "Ġ22",
        "72"
      ],
      [
        "Ġ22",
        "25"
      ],
      [
        "Ġ22",
        "88"
      ],
      [
        "Ġ22",
        "10"
      ],
      [
        "Ġ22",
        "55"
      ],
      [
        "Ġ22",
        "01"
      ],
      [
        "Ġ22",
        "77"
      ],
      [
        "Ġ42",
        "4"
      ],
      [
        "Ġ42",
        "5"
      ],
      [
        "Ġ42",
        "7"
      ],
      [
        "Ġ42",
        "60"
      ],
      [
        "Ġ42",
        "32"
      ],
      [
        "Ġ42",
        "68"
      ],
      [
        "Ġ42",
        "12"
      ],
      [
        "Ġ42",
        "84"
      ],
      [
        "Ġ42",
        "88"
      ],
      [
        "Ġ42",
        "24"
      ],
      [
        "Ġ42",
        "90"
      ],
      [
        "Ġ42",
        "18"
      ],
      [
        "Ġ42",
        "92"
      ],
      [
        "Ġ42",
        "78"
      ],
      [
        "Ġ63",
        "0"
      ],
      [
        "Ġ63",
        "2"
      ],
      [
        "Ġ63",
        "96"
      ],
      [
        "Ġ63",
        "08"
      ],
      [
        "Ġ63",
        "14"
      ],
      [
        "Ġ63",
        "90"
      ],
      [
        "Ġ63",
        "70"
      ],
      [
        "Ġ63",
        "48"
      ],
      [
        "Ġ63",
        "51"
      ],
      [
        "Ġ63",
        "65"
      ],
      [
        "Ġ63",
        "19"
      ],
      [
        "Ġ64",
        "0"
      ],
      [
        "Ġ64",
        "6"
      ],
      [
        "Ġ64",
        "00"
      ],
      [
        "Ġ64",
        "60"
      ],
      [
        "Ġ64",
        "80"
      ],
      [
        "Ġ64",
        "68"
      ],
      [
        "Ġ64",
        "38"
      ],
      [
        "Ġ64",
        "78"
      ],
      [
        "Ġ66",
        "0"
      ],
      [
        "Ġ66",
        "4"
      ],
      [
        "Ġ66",
        "6"
      ],
      [
        "Ġ66",
        "64"
      ],
      [
        "Ġ66",
        "22"
      ],
      [
        "Ġ66",
        "42"
      ],
      [
        "Ġ66",
        "93"
      ],
      [
        "Ġ67",
        "1"
      ],
      [
        "Ġ67",
        "5"
      ],
      [
        "Ġ67",
        "20"
      ],
      [
        "Ġ67",
        "90"
      ],
      [
        "Ġ67",
        "76"
      ],
      [
        "Ġ72",
        "6"
      ],
      [
        "Ġ72",
        "9"
      ],
      [
        "Ġ72",
        "96"
      ],
      [
        "Ġ72",
        "52"
      ],
      [
        "Ġ72",
        "90"
      ],
      [
        "Ġ72",
        "16"
      ],
      [
        "Ġ95",
        "0"
      ],
      [
        "Ġ79",
        "0"
      ],
      [
        "Ġ79",
        "2"
      ],
      [
        "Ġ79",
        "3"
      ],
      [
        "Ġ79",
        "9"
      ],
      [
        "Ġ79",
        "80"
      ],
      [
        "Ġ79",
        "20"
      ],
      [
        "Ġ79",
        "12"
      ],
      [
        "Ġ48",
        "3"
      ],
      [
        "Ġ48",
        "4"
      ],
      [
        "Ġ48",
        "6"
      ],
      [
        "Ġ48",
        "80"
      ],
      [
        "Ġ48",
        "96"
      ],
      [
        "Ġ48",
        "72"
      ],
      [
        "Ġ48",
        "14"
      ],
      [
        "Ġ48",
        "75"
      ],
      [
        "Ġ48",
        "51"
      ],
      [
        "Ġ48",
        "45"
      ],
      [
        "Ġ48",
        "19"
      ],
      [
        "Ġ48",
        "95"
      ],
      [
        "Ġ48",
        "98"
      ],
      [
        "Ġ84",
        "6"
      ],
      [
        "Ġ84",
        "8"
      ],
      [
        "Ġ25",
        "2"
      ],
      [
        "Ġ25",
        "5"
      ],
      [
        "Ġ25",
        "6"
      ],
      [
        "Ġ25",
        "9"
      ],
      [
        "Ġ25",
        "00"
      ],
      [
        "Ġ25",
        "80"
      ],
      [
        "Ġ25",
        "20"
      ],
      [
        "Ġ25",
        "96"
      ],
      [
        "Ġ25",
        "30"
      ],
      [
        "Ġ25",
        "08"
      ],
      [
        "Ġ25",
        "92"
      ],
      [
        "Ġ25",
        "16"
      ],
      [
        "Ġ25",
        "22"
      ],
      [
        "Ġ25",
        "48"
      ],
      [
        "Ġ25",
        "65"
      ],
      [
        "Ġ25",
        "53"
      ],
      [
        "Ġ25",
        "11"
      ],
      [
        "Ġ25",
        "37"
      ],
      [
        "Ġ25",
        "73"
      ],
      [
        "Ġ25",
        "01"
      ],
      [
        "Ġ91",
        "0"
      ],
      [
        "Ġ91",
        "2"
      ],
      [
        "Ġ91",
        "8"
      ],
      [
        "Ġ73",
        "0"
      ],
      [
        "Ġ73",
        "5"
      ],
      [
        "Ġ73",
        "7"
      ],
      [
        "Ġ73",
        "00"
      ],
      [
        "Ġ73",
        "60"
      ],
      [
        "Ġ73",
        "32"
      ],
      [
        "Ġ73",
        "50"
      ],
      [
        "Ġ73",
        "72"
      ],
      [
        "Ġ73",
        "10"
      ],
      [
        "Ġ73",
        "87"
      ],
      [
        "Ġ73",
        "26"
      ],
      [
        "Ġ61",
        "6"
      ],
      [
        "Ġ61",
        "20"
      ],
      [
        "Ġ61",
        "10"
      ],
      [
        "Ġ61",
        "75"
      ],
      [
        "Ġ61",
        "62"
      ],
      [
        "Ġ34",
        "0"
      ],
      [
        "Ġ34",
        "8"
      ],
      [
        "Ġ34",
        "80"
      ],
      [
        "Ġ34",
        "32"
      ],
      [
        "Ġ34",
        "50"
      ],
      [
        "Ġ34",
        "56"
      ],
      [
        "Ġ34",
        "08"
      ],
      [
        "Ġ34",
        "65"
      ],
      [
        "Ġ34",
        "17"
      ],
      [
        "Ġ34",
        "02"
      ],
      [
        "Ġ34",
        "31"
      ],
      [
        "Ġ34",
        "45"
      ],
      [
        "Ġ34",
        "78"
      ],
      [
        "Ġ88",
        "0"
      ],
      [
        "Ġ88",
        "32"
      ],
      [
        "Ġ88",
        "11"
      ],
      [
        "Ġ58",
        "0"
      ],
      [
        "Ġ58",
        "3"
      ],
      [
        "Ġ58",
        "9"
      ],
      [
        "Ġ58",
        "40"
      ],
      [
        "Ġ58",
        "56"
      ],
      [
        "Ġ58",
        "65"
      ],
      [
        "Ġ58",
        "28"
      ],
      [
        "Ġ31",
        "2"
      ],
      [
        "Ġ31",
        "6"
      ],
      [
        "Ġ31",
        "00"
      ],
      [
        "Ġ31",
        "60"
      ],
      [
        "Ġ31",
        "80"
      ],
      [
        "Ġ31",
        "50"
      ],
      [
        "Ġ31",
        "96"
      ]
    ]
  }
}