{
  "version": "1.0",
  "truncation": null,
  "padding": null,
  "added_tokens": [
    {
      "id": 0,
      "content": "[UNK]",
      "single_word": false,
      "lstrip": false,
      "rstrip": false,
      "normalized": false,
      "special": true
    },
    {
      "id": 1,
      "content": "[PAD]",
      "single_word": false,
      "lstrip": false,
      "rstrip": false,
      "normalized": false,
      "special": true
    },
    {
      "id": 2,
      "content": "<|endoftext|>",
      "single_word": false,
      "lstrip": false,
      "rstrip": false,
      "normalized": false,
      "special": true
    },
    {
      "id": 3,
      "content": "User:",
      "single_word": false,
      "lstrip": false,
      "rstrip": false,
      "normalized": false,
      "special": true
    },
    {
      "id": 4,
      "content": "Agastya:",
      "single_word": false,
      "lstrip": false,
      "rstrip": false,
      "normalized": false,
      "special": true
    }
  ],
  "normalizer": null,
  "pre_tokenizer": {
    "type": "ByteLevel",
    "add_prefix_space": false,
    "trim_offsets": true,
    "use_regex": true
  },
  "post_processor": null,
  "decoder": {
    "type": "ByteLevel",
    "add_prefix_space": true,
    "trim_offsets": true,
    "use_regex": true
  },
  "model": {
    "type": "BPE",
    "dropout": null,
    "unk_token": "[UNK]",
    "continuing_subword_prefix": null,
    "end_of_word_suffix": null,
    "fuse_unk": false,
    "byte_fallback": false,
    "ignore_merges": false,
    "vocab": {
      "[UNK]": 0,
      "[PAD]": 1,
      "<|endoftext|>": 2,
      "User:": 3,
      "Agastya:": 4,
      "!": 5,
      "#": 6,
      "$": 7,
      "%": 8,
      "&": 9,
      "'": 10,
      "(": 11,
      ")": 12,
      "*": 13,
      "+": 14,
      ",": 15,
      "-": 16,
      ".": 17,
      "/": 18,
      "0": 19,
      "1": 20,
      "2": 21,
      "3": 22,
      "4": 23,
      "5": 24,
      "6": 25,
      "7": 26,
      "8": 27,
      "9": 28,
      ":": 29,
      ";": 30,
      "<": 31,
      ">": 32,
      "?": 33,
      "A": 34,
      "B": 35,
      "C": 36,
      "D": 37,
      "E": 38,
      "F": 39,
      "G": 40,
      "H": 41,
      "I": 42,
      "J": 43,
      "K": 44,
      "L": 45,
      "M": 46,
      "N": 47,
      "O": 48,
      "P": 49,
      "Q": 50,
      "R": 51,
      "S": 52,
      "T": 53,
      "U": 54,
      "V": 55,
      "W": 56,
      "X": 57,
      "Y": 58,
      "Z": 59,
      "[": 60,
      "]": 61,
      "^": 62,
      "_": 63,
      "a": 64,
      "b": 65,
      "c": 66,
      "d": 67,
      "e": 68,
      "f": 69,
      "g": 70,
      "h": 71,
      "i": 72,
      "j": 73,
      "k": 74,
      "l": 75,
      "m": 76,
      "n": 77,
      "o": 78,
      "p": 79,
      "q": 80,
      "r": 81,
      "s": 82,
      "t": 83,
      "u": 84,
      "v": 85,
      "w": 86,
      "x": 87,
      "y": 88,
      "z": 89,
      "{": 90,
      "|": 91,
      "}": 92,
      "¡": 93,
      "¢": 94,
      "£": 95,
      "¦": 96,
      "§": 97,
      "¨": 98,
      "©": 99,
      "ª": 100,
      "«": 101,
      "¯": 102,
      "°": 103,
      "´": 104,
      "¶": 105,
      "·": 106,
      "»": 107,
      "¼": 108,
      "½": 109,
      "¿": 110,
      "Â": 111,
      "Ã": 112,
      "Å": 113,
      "Î": 114,
      "Ï": 115,
      "×": 116,
      "â": 117,
      "ï": 118,
      "Ċ": 119,
      "č": 120,
      "Ġ": 121,
      "Ģ": 122,
      "Ĥ": 123,
      "Ħ": 124,
      "İ": 125,
      "ı": 126,
      "Ĵ": 127,
      "ĵ": 128,
      "Ķ": 129,
      "ķ": 130,
      "Ĺ": 131,
      "ĺ": 132,
      "Ļ": 133,
      "ľ": 134,
      "Ŀ": 135,
      "ł": 136,
      "Ġt": 137,
      "Ġa": 138,
      "čĊ": 139,
      "he": 140,
      "in": 141,
      "Ġs": 142,
      "nd": 143,
      "Ġo": 144,
      "ččĊ": 145,
      "Ġw": 146,
      "Ġthe": 147,
      "er": 148,
      "ou": 149,
      "ha": 150,
      "Ġm": 151,
      "re": 152,
      "Ġb": 153,
      "le": 154,
      "st": 155,
      "ing": 156,
      "ed": 157,
      "is": 158,
      "it": 159,
      "en": 160,
      "or": 161,
      "Ġof": 162,
      "Ġin": 163,
      "Ġc": 164,
      "Ġto": 165,
      "Ġand": 166,
      "on": 167,
      "Ġf": 168,
      "âĢ": 169,
      "ll": 170,
      "ar": 171,
      "at": 172,
      "an": 173,
      "Ġd": 174,
      "Ġp": 175,
      "Ġy": 176,
      "im": 177,
      "es": 178,
      "Ġh": 179,
      "hat": 180,
      "as": 181,
      "ow": 182,
      "Ġyou": 183,
      "ĠI": 184,
      "om": 185,
      "Ġl": 186,
      "Ġha": 187,
      "ct": 188,
      "Ġn": 189,
      "Ġhe": 190,
      "Ġe": 191,
      "ly": 192,
      "ft": 193,
      "ast": 194,
      "ck": 195,
      "ut": 196,
      "Ġis": 197,
      "ch": 198,
      "Ġst": 199,
      "ĠT": 200,
      "ot": 201,
      "ent": 202,
      "Us": 203,
      "ay": 204,
      "end": 205,
      "id": 206,
      "Ġme": 207,
      "ve": 208,
      "Ġbe": 209,
      "ĠĠ": 210,
      "ex": 211,
      "ion": 212,
      "ya": 213,
      "gast": 214,
      "gastya": 215,
      "ext": 216,
      "al": 217,
      "oft": 218,
      "Agastya": 219,
      "<|": 220,
      "|>": 221,
      "User": 222,
      "endoft": 223,
      "endoftext": 224,
      "ld": 225,
      "Ġg": 226,
      ".<|": 227,
      "Ġr": 228,
      "Ġth": 229,
      "se": 230,
      "Ġthat": 231,
      "gh": 232,
      "ce": 233,
      "ur": 234,
      "âĢľ": 235,
      "ple": 236,
      "Ġall": 237,
      "Ġit": 238,
      "ver": 239,
      "ĠThe": 240,
      "Ġwas": 241,
      "li": 242,
      "ri": 243,
      "od": 244,
      "un": 245,
      "ee": 246,
      "ble": 247,
      "Ġon": 248,
      "âĢĿ": 249,
      "Ġfor": 250,
      "ge": 251,
      "la": 252,
      "ith": 253,
      "ĠW": 254,
      "Ġre": 255,
      "Ġyour": 256,
      "Ġas": 257,
      "Ġwh": 258,
      "pt": 259,
      "Ġan": 260,
      "Ġde": 261,
      "Ġsu": 262,
      "Ġat": 263,
      "âĢĻ": 264,
      "Ġhis": 265,
      "ack": 266,
      "ght": 267,
      "Ġwith": 268,
      "et": 269,
      "lo": 270,
      "ĠS": 271,
      "ould": 272,
      "ir": 273,
      "ad": 274,
      "Ġmy": 275,
      "ide": 276,
      "ment": 277,
      "Ġnot": 278,
      "Ġu": 279,
      "Ġk": 280,
      "Ġcom": 281,
      "ect": 282,
      "qu": 283,
      "her": 284,
      "Ġim": 285,
      "all": 286,
      "ĠH": 287,
      "Ġman": 288,
      "able": 289,
      "ation": 290,
      "Ġstack": 291,
      "uct": 292,
      "Ġpr": 293,
      "ĠC": 294,
      "Ġli": 295,
      "Ġsa": 296,
      "th": 297,
      "Ġwe": 298,
      "ory": 299,
      "Ġar": 300,
      "ĠĠĠĠ": 301,
      "Ġwor": 302,
      "Ġins": 303,
      "Ġby": 304,
      "Ġhad": 305,
      "ime": 306,
      "Ġher": 307,
      "Ġmem": 308,
      "ul": 309,
      "ound": 310,
      "ity": 311,
      "ĠWhat": 312,
      "ain": 313,
      "Ġmemory": 314,
      "red": 315,
      "Ġinside": 316,
      "ning": 317,
      "plement": 318,
      "Ġimplement": 319,
      "Ġso": 320,
      "ust": 321,
      "Ġse": 322,
      "ĠM": 323,
      "age": 324,
      "Ġev": 325,
      "Ġtime": 326,
      "ill": 327,
      "ke": 328,
      "ort": 329,
      "am": 330,
      "Ġsh": 331,
      "Ġhave": 332,
      "ase": 333,
      "ore": 334,
      "Ġbut": 335,
      "Ġhim": 336,
      "ray": 337,
      "ĠB": 338,
      "Ġdo": 339,
      "av": 340,
      "ĠA": 341,
      "and": 342,
      "ss": 343,
      "Ġarray": 344,
      "ers": 345,
      "Ġwhi": 346,
      "ally": 347,
      "Ġqu": 348,
      "Ġlo": 349,
      "ere": 350,
      "Ġstr": 351,
      ".âĢĿ": 352,
      "rom": 353,
      "ies": 354,
      "ic": 355,
      "ps": 356,
      "Ġrun": 357,
      "Ġex": 358,
      "int": 359,
      "the": 360,
      "pe": 361,
      "pr": 362,
      "Ġrunning": 363,
      "ight": 364,
      "ess": 365,
      "if": 366,
      "Ġsum": 367,
      "Ġmanage": 368,
      "Ġcomple": 369,
      "Ġfo": 370,
      "ary": 371,
      "Ġle": 372,
      "alu": 373,
      "Ġhow": 374,
      "Ġfrom": 375,
      "Ġup": 376,
      "Ġ1": 377,
      "iz": 378,
      "ject": 379,
      "ome": 380,
      "Ġwhich": 381,
      "Ġcomplex": 382,
      "il": 383,
      "liz": 384,
      "Ġevalu": 385,
      "Ġevaluat": 386,
      "Ġmat": 387,
      "case": 388,
      "hen": 389,
      "Ġthis": 390,
      "Ġworst": 391,
      "ef": 392,
      "Ġob": 393,
      "oc": 394,
      "Ġcomplexity": 395,
      "ard": 396,
      "ked": 397,
      "ive": 398,
      "to": 399,
      "Ġcon": 400,
      "Ġcle": 401,
      "our": 402,
      "Ġj": 403,
      "ows": 404,
      "very": 405,
      "Ġhas": 406,
      "Ġshe": 407,
      "ip": 408,
      "cri": 409,
      "ind": 410,
      "ĠP": 411,
      "lock": 412,
      "ter": 413,
      "Ġprod": 414,
      "ub": 415,
      "ous": 416,
      "ro": 417,
      "Ġkee": 418,
      "ized": 419,
      "ict": 420,
      "ree": 421,
      "ol": 422,
      "ching": 423,
      "Ġgo": 424,
      "Ġproduct": 425,
      "cript": 426,
      "Ġwere": 427,
      "lf": 428,
      "ra": 429,
      "ĠTo": 430,
      "Ġsee": 431,
      "ff": 432,
      "Ġor": 433,
      "Ġdec": 434,
      "Ġare": 435,
      "ĠâĢľ": 436,
      "Ġv": 437,
      "Ġobject": 438,
      "ĠO": 439,
      "ant": 440,
      "pp": 441,
      "Ġben": 442,
      "ue": 443,
      "inary": 444,
      "Ġclean": 445,
      "han": 446,
      "pla": 447,
      "Ġstruct": 448,
      "Ġut": 449,
      "Ġopt": 450,
      "ĠJ": 451,
      "Ġoptim": 452,
      "Ġwhat": 453,
      "ell": 454,
      "arch": 455,
      "Ġne": 456,
      "Ġfoot": 457,
      "ints": 458,
      "Ġbound": 459,
      "Ġpred": 460,
      "ocation": 461,
      "Ġpredict": 462,
      "âĢĶ": 463,
      "Ġstructur": 464,
      "Ġallocation": 465,
      "Ġoptimized": 466,
      "Ġdecla": 467,
      "out": 468,
      "Ġone": 469,
      "Ġbenef": 470,
      "ĠE": 471,
      "Ġblock": 472,
      "aries": 473,
      "ough": 474,
      "Ġkeeps": 475,
      "iliz": 476,
      "us": 477,
      "Ġbenefit": 478,
      "art": 479,
      "Ġdeclare": 480,
      "ĠUs": 481,
      "ong": 482,
      "prints": 483,
      "Ġallows": 484,
      "Ġfootprints": 485,
      "Ġmatching": 486,
      "Ġcleanly": 487,
      "Ġboundaries": 488,
      "Ġarrays": 489,
      "Ġutiliz": 490,
      "Ġpredictable": 491,
      "Ġstructurally": 492,
      "ĠUsing": 493,
      "Ġutilizing": 494,
      "Ġwho": 495,
      "Ġno": 496,
      "Ġkn": 497,
      "Ġal": 498,
      "ist": 499,
      "plain": 500,
      "ok": 501,
      "Ġhand": 502,
      "one": 503,
      "ick": 504,
      "Ġthere": 505,
      "ure": 506,
      "um": 507,
      "ĠG": 508,
      "--": 509,
      "ther": 510,
      "Ġam": 511,
      "ult": 512,
      "own": 513,
      "Ġwhen": 514,
      "ĠL": 515,
      "Ġbeen": 516,
      "led": 517,
      "reat": 518,
      "ak": 519,
      "Ġque": 520,
      "fe": 521,
      "self": 522,
      "Ġsome": 523,
      "Ġsaid": 524,
      "Ġbinary": 525,
      "Ġsearch": 526,
      "ĠHe": 527,
      "Ġun": 528,
      "Ġcan": 529,
      "ate": 530,
      "Ġout": 531,
      "Ġ2": 532,
      "Ġthey": 533,
      "nt": 534,
      "ava": 535,
      "Ġwould": 536,
      "ĠR": 537,
      "Ġway": 538,
      "lied": 539,
      "Ġthem": 540,
      "Ġwill": 541,
      "ĠD": 542,
      "Ġlin": 543,
      "ite": 544,
      "Ġ6": 545,
      "Ġnow": 546,
      "ab": 547,
      "Ġcould": 548,
      "hale": 549,
      "itt": 550,
      "Ġag": 551,
      "Ġ3": 552,
      "Ġ5": 553,
      "ost": 554,
      "Ġ4": 555,
      "Ġtable": 556,
      "ig": 557,
      "Ġlist": 558,
      ",âĢĿ": 559,
      "Ġab": 560,
      "Ġany": 561,
      "per": 562,
      "Ġif": 563,
      "Ġ9": 564,
      "Ġ8": 565,
      "Ġus": 566,
      "Ġmult": 567,
      "ĠHow": 568,
      "ĠMr": 569,
      "ose": 570,
      "way": 571,
      "Ġ7": 572,
      "Ġmultip": 573,
      "Ġmultiplied": 574,
      "Ġevaluates": 575,
      "Ġpo": 576,
      "Ġmore": 577,
      "Ġtheir": 578,
      "hed": 579,
      "em": 580,
      "Ġtree": 581,
      "Ġvery": 582,
      "Ġsha": 583,
      "Ġlinked": 584,
      "Ġinto": 585,
      "ag": 586,
      "ake": 587,
      ").<|": 588,
      "Ġevaluated": 589,
      "Ġhash": 590,
      "Ġqueue": 591,
      "ame": 592,
      "ance": 593,
      "ift": 594,
      "Ġpre": 595,
      "Ġthen": 596,
      "ved": 597,
      "Ġsort": 598,
      "Ġfe": 599,
      "Ġtr": 600,
      "ode": 601,
      "here": 602,
      "ud": 603,
      "Ġsp": 604,
      "ence": 605,
      "hing": 606,
      "?âĢĿ": 607,
      "ire": 608,
      "ĠF": 609,
      "ass": 610,
      "Ġknow": 611,
      "ine": 612,
      "ĠĠĠĠĠĠĠĠ": 613,
      "fore": 614,
      "ffect": 615,
      "Ġover": 616,
      "est": 617,
      "Ġupon": 618,
      "Ġsw": 619,
      "Ġlike": 620,
      "Ġother": 621,
      "nder": 622,
      "ink": 623,
      "are": 624,
      "Ġmust": 625,
      "Ġpro": 626,
      "pers": 627,
      "med": 628,
      "ings": 629,
      "wn": 630,
      "uch": 631,
      "ish": 632,
      "ĠCan": 633,
      "Ġen": 634,
      "yth": 635,
      "ness": 636,
      "ĠCould": 637,
      "ac": 638,
      "ather": 639,
      "Ġthan": 640,
      "Ġwhale": 641,
      "Ġho": 642,
      "ĠJava": 643,
      "Ġco": 644,
      "Ġshow": 645,
      "Ġcode": 646,
      "uby": 647,
      "Script": 648,
      "++": 649,
      "Ġdown": 650,
      "ython": 651,
      "au": 652,
      "ĠN": 653,
      "ĠBut": 654,
      "ĠIt": 655,
      "Ġbo": 656,
      "ng": 657,
      "Ġagain": 658,
      "Ġmay": 659,
      "ber": 660,
      "velo": 661,
      "ively": 662,
      "Ġexplain": 663,
      "ĠY": 664,
      "Ġonly": 665,
      "ious": 666,
      "me": 667,
      "ought": 668,
      "Ġday": 669,
      "fter": 670,
      "po": 671,
      "ward": 672,
      "hi": 673,
      "Ġeffect": 674,
      "ĠSort": 675,
      "Ġro": 676,
      "Ġsuch": 677,
      "Ġdid": 678,
      "ice": 679,
      "Ġad": 680,
      "of": 681,
      "ittle": 682,
      "urn": 683,
      "Ġour": 684,
      "Ġdevelo": 685,
      "Ġhandle": 686,
      "cy": 687,
      "Ġsafe": 688,
      "ark": 689,
      "ry": 690,
      "Ġdevelopers": 691,
      "ount": 692,
      "Ġbefore": 693,
      "cc": 694,
      "Ġtell": 695,
      "Ġshould": 696,
      "iv": 697,
      "ĠEx": 698,
      "for": 699,
      "Ġfa": 700,
      "Ġdis": 701,
      "Ġsafely": 702,
      "Qu": 703,
      "Ġproduction": 704,
      "ĠExplain": 705,
      "Ġeffectively": 706,
      "Ġtw": 707,
      "ions": 708,
      "ise": 709,
      "other": 710,
      "Ġmuch": 711,
      "Ġlittle": 712,
      "ĠSt": 713,
      "The": 714,
      "be": 715,
      "ress": 716,
      "ars": 717,
      "Ġper": 718,
      "ile": 719,
      "ful": 720,
      "ade": 721,
      "less": 722,
      "his": 723,
      "ever": 724,
      "ood": 725,
      "Ġsc": 726,
      "Ġabout": 727,
      "Ġgreat": 728,
      "Ġshall": 729,
      "ated": 730,
      "ady": 731,
      "sh": 732,
      "Ġsay": 733,
      "Ġgr": 734,
      "that": 735,
      "Ġbr": 736,
      "Ġsm": 737,
      "ull": 738,
      "ĠQu": 739,
      "Ġhar": 740,
      "Ġafter": 741,
      "Ġown": 742,
      "ie": 743,
      "Ġevery": 744,
      "Ġthink": 745,
      "ling": 746,
      "Ġits": 747,
      "Ġ_": 748,
      "Ġpart": 749,
      "Ġlong": 750,
      "Ġrem": 751,
      "!âĢĿ": 752,
      "pes": 753,
      "ord": 754,
      "not": 755,
      "ered": 756,
      "Ġmight": 757,
      "Ġye": 758,
      "Ġhere": 759,
      "sp": 760,
      "ried": 761,
      "Ġoff": 762,
      "irst": 763,
      "ert": 764,
      "Ġfee": 765,
      "Ġback": 766,
      "Ġint": 767,
      "eth": 768,
      "co": 769,
      "Ġey": 770,
      "ap": 771,
      "Ġthr": 772,
      "man": 773,
      "Ġeven": 774,
      "Ġpla": 775,
      "Ġlook": 776,
      "pen": 777,
      "Ġold": 778,
      "Ġent": 779,
      "Ġlog": 780,
      "ced": 781,
      "âĢĺ": 782,
      "Ġquick": 783,
      "iss": 784,
      "Ġdes": 785,
      "Ġcame": 786,
      "ach": 787,
      "Ġthese": 788,
      "ĠĠĠĠĠĠ": 789,
      "erge": 790,
      "ubble": 791,
      "Ġthough": 792,
      "lizab": 793,
      "lizabeth": 794,
      "ily": 795,
      "Ġgood": 796,
      "de": 797,
      "ne": 798,
      "Ġfri": 799,
      "ls": 800,
      "Ġmost": 801,
      "Ġwork": 802,
      "Ġty": 803,
      "Ġtwo": 804,
      "Ġ*": 805,
      "Ġwhere": 806,
      "Ġaway": 807,
      "ving": 808,
      "Ġcha": 809,
      "Ġthought": 810,
      "Ġatt": 811,
      "Ġseemed": 812,
      "Ġcome": 813,
      "Ġwell": 814,
      "omet": 815,
      "Ġthose": 816,
      "Ġnever": 817,
      "Ġspe": 818,
      "Ġfirst": 819,
      "ations": 820,
      "Ġyet": 821,
      "we": 822,
      "ath": 823,
      "Ġsaw": 824,
      "uck": 825,
      "so": 826,
      "ĠAnd": 827,
      "ep": 828,
      "Ġlast": 829,
      "Ġmade": 830,
      "ang": 831,
      "Ġtoo": 832,
      "Ġlet": 833,
      "Ġswift": 834,
      "Ġunder": 835,
      "sw": 836,
      "con": 837,
      "Ġtypes": 838,
      "ho": 839,
      "Ġlife": 840,
      "ms": 841,
      "Ġcont": 842,
      "sent": 843,
      "ĠSw": 844,
      "ave": 845,
      "Ġstill": 846,
      "ĠV": 847,
      "ied": 848,
      "Ġbet": 849,
      "Ġfriend": 850,
      "ans": 851,
      "ign": 852,
      "Ġpass": 853,
      "ible": 854,
      "ves": 855,
      "aking": 856,
      "Ġright": 857,
      "ĠGo": 858,
      "Ġrust": 859,
      "Ġhead": 860,
      "Ġever": 861,
      "ces": 862,
      "ial": 863,
      "ild": 864,
      "Ġwat": 865,
      "Ġthrough": 866,
      "ĠSe": 867,
      "Ġpe": 868,
      "Ġcomp": 869,
      "Ġple": 870,
      "Ġhel": 871,
      "ĠTy": 872,
      "rew": 873,
      "ĠYou": 874,
      "ĠSwift": 875,
      "lt": 876,
      "Ġeyes": 877,
      "day": 878,
      "Ġruby": 879,
      "Ġmyself": 880,
      "Ġtypescript": 881,
      "Ġnight": 882,
      "Ġjav": 883,
      "QL": 884,
      "ql": 885,
      "Ġap": 886,
      "Ġsql": 887,
      "hab": 888,
      "Ġpython": 889,
      "ascript": 890,
      "ĠSQL": 891,
      "peScript": 892,
      "Ġjava": 893,
      "ĠPython": 894,
      "ĠRust": 895,
      "ĠRuby": 896,
      "ĠJavaScript": 897,
      "ĠTypeScript": 898,
      "Ġjavascript": 899,
      "com": 900,
      "fer": 901,
      "Ġbeing": 902,
      "light": 903,
      "Ġwent": 904,
      "most": 905,
      "Ġfound": 906,
      "Ġbeg": 907,
      "mer": 908,
      "Ġcons": 909,
      "Ġship": 910,
      "Ġroom": 911,
      "ĠQuick": 912,
      "eep": 913,
      "Ġopen": 914,
      "Ġwr": 915,
      "ause": 916,
      "ens": 917,
      "Ġend": 918,
      "ways": 919,
      "ouse": 920,
      "Ġexp": 921,
      "Ġmind": 922,
      "Ġ10": 923,
      "ared": 924,
      "aw": 925,
      "Ġmake": 926,
      "ĠShe": 927,
      "ĠThere": 928,
      "ors": 929,
      "Ġget": 930,
      "Ġansw": 931,
      "Ġcr": 932,
      "ĠElizabeth": 933,
      "thing": 934,
      "Ġacc": 935,
      "Ġwithout": 936,
      "ertain": 937,
      "Ġsomet": 938,
      "lect": 939,
      "ane": 940,
      "igh": 941,
      "mes": 942,
      "with": 943,
      "log": 944,
      "ĠĠĠĠĠĠĠĠĠĠĠĠĠĠĠĠ": 945,
      "wards": 946,
      "ner": 947,
      "Ġsame": 948,
      "Ġsoon": 949,
      "Ġinst": 950,
      "ins": 951,
      "Ġsea": 952,
      "Ġhard": 953,
      "oked": 954,
      "Ġhelp": 955,
      "Ġhimself": 956,
      "Ġjust": 957,
      "Ġwind": 958,
      "Ġhapp": 959,
      "It": 960,
      "but": 961,
      "ged": 962,
      "Ġmen": 963,
      "low": 964,
      "imes": 965,
      "oke": 966,
      "arly": 967,
      "orr": 968,
      "Ġdist": 969,
      "iness": 970,
      "Ġret": 971,
      "ER": 972,
      "Ġcal": 973,
      "But": 974,
      "apt": 975,
      "ened": 976,
      "hes": 977,
      "Ġdear": 978,
      "Ġmar": 979,
      "Ġcl": 980,
      ":--": 981,
      "oth": 982,
      "urned": 983,
      "Ġonce": 984,
      "Ġcomm": 985,
      "ĠWe": 986,
      "ient": 987,
      "ret": 988,
      "Ġsle": 989,
      "Ġpa": 990,
      "ley": 991,
      "Ġround": 992,
      "Ġface": 993,
      "Ġbec": 994,
      "ures": 995,
      "oment": 996,
      "ĠPro": 997,
      "ĠAhab": 998,
      "ks": 999,
      "bo": 1000,
      "was": 1001,
      "by": 1002,
      "Ġter": 1003,
      "olmes": 1004,
      "Ġnothing": 1005,
      "Ġpl": 1006,
      "ĠIn": 1007,
      "Ġrep": 1008,
      "Ġlay": 1009,
      "te": 1010,
      "Ġmany": 1011,
      "Ġside": 1012,
      "Ġsub": 1013,
      "ven": 1014,
      "Ġheart": 1015,
      "!<|": 1016,
      "den": 1017,
      "gr": 1018,
      "ting": 1019,
      "Ġboat": 1020,
      "Ġmo": 1021,
      "Ġgl": 1022,
      "Ġfind": 1023,
      "ange": 1024,
      "Ġheard": 1025,
      "Ġworld": 1026,
      "Ġtook": 1027,
      "Ġdoor": 1028,
      "HA": 1029,
      "ery": 1030,
      "Ġwhile": 1031,
      "ond": 1032,
      "Ġcreat": 1033,
      "Ġhouse": 1034,
      "Ġthings": 1035,
      "Ġgive": 1036,
      "Ġword": 1037,
      "arcy": 1038,
      "ĠFor": 1039,
      "Ġbl": 1040,
      "Ġcar": 1041,
      "Ġnat": 1042,
      "lie": 1043,
      "ĠMrs": 1044,
      "Ġsy": 1045,
      "orning": 1046,
      "Ġseen": 1047,
      "ew": 1048,
      "ken": 1049,
      "act": 1050,
      "Ġfar": 1051,
      "ical": 1052,
      "Ġplace": 1053,
      "cl": 1054,
      "Ġmoment": 1055,
      "ished": 1056,
      "ser": 1057,
      "Ġthree": 1058,
      "ined": 1059,
      "ener": 1060,
      "Ġcur": 1061,
      "Ġhum": 1062,
      "Ġlight": 1063,
      "pro": 1064,
      "les": 1065,
      "ĠMy": 1066,
      "right": 1067,
      "TER": 1068,
      "ail": 1069,
      "ched": 1070,
      "cept": 1071,
      "whi": 1072,
      "Ġsun": 1073,
      "ons": 1074,
      "ĠHolmes": 1075,
      "ĠGod": 1076,
      "os": 1077,
      "Ġbre": 1078,
      "ace": 1079,
      "Ġadv": 1080,
      "ither": 1081,
      "Ġtake": 1082,
      "Ġclo": 1083,
      "Ġsat": 1084,
      "lic": 1085,
      "Ġsupp": 1086,
      "Ġlooked": 1087,
      "Ġquest": 1088,
      "up": 1089,
      "ream": 1090,
      "sol": 1091,
      "ted": 1092,
      "ince": 1093,
      "der": 1094,
      "now": 1095,
      "Ġbu": 1096,
      "hy": 1097,
      "ty": 1098,
      "Ġimp": 1099,
      "._": 1100,
      "PTER": 1101,
      "HAPTER": 1102,
      "Ġyoung": 1103,
      "ĠDarcy": 1104,
      "llow": 1105,
      "rave": 1106,
      "enn": 1107,
      "ention": 1108,
      "Ġalways": 1109,
      "Ġset": 1110,
      "Ġlove": 1111,
      "ense": 1112,
      "Ġrest": 1113,
      "Ġac": 1114,
      "ming": 1115,
      "Ġsur": 1116,
      "Ġmin": 1117,
      "ĠMiss": 1118,
      "ained": 1119,
      "air": 1120,
      "Ġwant": 1121,
      "Ġfew": 1122,
      "aptain": 1123,
      "Ġhowever": 1124,
      "Ġhands": 1125,
      "Ġfeel": 1126,
      "Ġagastya": 1127,
      "CHAPTER": 1128,
      "Ġass": 1129,
      "alk": 1130,
      "And": 1131,
      "Ġthing": 1132,
      "ern": 1133,
      "ody": 1134,
      "ross": 1135,
      "Ġbubble": 1136,
      "Ġdon": 1137,
      "ib": 1138,
      "ix": 1139,
      "Ġcertain": 1140,
      "Ġappe": 1141,
      "oub": 1142,
      "oy": 1143,
      "head": 1144,
      "Ġfelt": 1145,
      "iet": 1146,
      "ition": 1147,
      "Ġmon": 1148,
      "you": 1149,
      "ute": 1150,
      "Ġput": 1151,
      "He": 1152,
      "har": 1153,
      "ised": 1154,
      "Ġposs": 1155,
      "Ġmerge": 1156,
      "Ġact": 1157,
      "Ġmean": 1158,
      "Ġanswer": 1159,
      "its": 1160,
      "ĠMerge": 1161,
      "ĠBinary": 1162,
      "ĠBubble": 1163,
      "Ġpresent": 1164,
      "ĠSearch": 1165,
      "You": 1166,
      "stand": 1167,
      "Ġdone": 1168,
      "Ġsomething": 1169,
      "ured": 1170,
      "Ġmorning": 1171,
      "land": 1172,
      "aught": 1173,
      "Ġcried": 1174,
      "âĢľâĢĺ": 1175,
      "vers": 1176,
      "arn": 1177,
      "Ġnew": 1178,
      "Ġalmost": 1179,
      "ĠDo": 1180,
      "Ġsmall": 1181,
      "ween": 1182,
      "ited": 1183,
      "Ġleft": 1184,
      "Ġfather": 1185,
      "haps": 1186,
      "Ġpoor": 1187,
      "ennet": 1188,
      "ĠK": 1189,
      "Ġcannot": 1190,
      "ower": 1191,
      "ĠLu": 1192,
      "ĠThen": 1193,
      "Ġwhole": 1194,
      "Ġchi": 1195,
      "Ġwhite": 1196,
      "que": 1197,
      "ĠâĢĺ": 1198,
      "ating": 1199,
      "ason": 1200,
      "Ġem": 1201,
      "Ġpur": 1202,
      "Ġkind": 1203,
      "Ġcour": 1204,
      "Ġtill": 1205,
      "Ġsist": 1206,
      "Ġinde": 1207,
      "ual": 1208,
      "Ġocc": 1209,
      "ular": 1210,
      "Ġhear": 1211,
      "ia": 1212,
      "Ġchan": 1213,
      "ĠIf": 1214,
      "read": 1215,
      "Ġamong": 1216,
      "Ġsleep": 1217,
      "nce": 1218,
      "Ġvo": 1219,
      "fess": 1220,
      "sel": 1221,
      "fort": 1222,
      "Ġadd": 1223,
      "Ġhalf": 1224,
      "my": 1225,
      "Ġtowards": 1226,
      "Ġ12": 1227,
      "ember": 1228,
      "Ġquestion": 1229,
      "Ġche": 1230,
      "Ġfull": 1231,
      "ash": 1232,
      "Ġeach": 1233,
      "Ġste": 1234,
      "lack": 1235,
      "Ġanother": 1236,
      "Ġproc": 1237,
      "ific": 1238,
      "athan": 1239,
      "Ġhour": 1240,
      "ĠThis": 1241,
      "ĠAs": 1242,
      "which": 1243,
      "ug": 1244,
      "Ġser": 1245,
      "ank": 1246,
      "gether": 1247,
      "el": 1248,
      "ently": 1249,
      "ĠThey": 1250,
      "Ġfear": 1251,
      "night": 1252,
      "Ġfell": 1253,
      "Ġdark": 1254,
      "Ġagainst": 1255,
      "irect": 1256,
      "him": 1257,
      "Ġind": 1258,
      "Ġfam": 1259,
      "ĠWhale": 1260,
      "ĠBennet": 1261,
      "Ġquite": 1262,
      "Ġbelie": 1263,
      "ric": 1264,
      "lsing": 1265,
      "iled": 1266,
      "Ġknew": 1267,
      "pos": 1268,
      "men": 1269,
      "ingley": 1270,
      "Ġenough": 1271,
      "Ġread": 1272,
      "Ġ11": 1273,
      "ubb": 1274,
      "ience": 1275,
      "Ġwo": 1276,
      "Ġgener": 1277,
      "ople": 1278,
      "ying": 1279,
      "Ġtold": 1280,
      "Ġdeep": 1281,
      "like": 1282,
      "pped": 1283,
      "ian": 1284,
      "Ġhope": 1285,
      "ph": 1286,
      "ider": 1287,
      "ural": 1288,
      "ived": 1289,
      "Ġpers": 1290,
      "irc": 1291,
      "Ġpleas": 1292,
      "Ġkeep": 1293,
      "ten": 1294,
      "atter": 1295,
      "Ġboth": 1296,
      "Ġdra": 1297,
      "Ġbetween": 1298,
      "had": 1299,
      "Ġfl": 1300,
      "Ġstrange": 1301,
      "cu": 1302,
      "Ġhigh": 1303,
      "entle": 1304,
      "Ġfollow": 1305,
      "ham": 1306,
      "Ġneed": 1307,
      "Ġpoint": 1308,
      "berg": 1309,
      "Ġwa": 1310,
      "uten": 1311,
      "Ġdoub": 1312,
      "Ġcount": 1313,
      "Ġreg": 1314,
      "ĠHelsing": 1315,
      "ĠVan": 1316,
      "Ġair": 1317,
      "Ġheav": 1318,
      "ĠWhen": 1319,
      "Ġ(": 1320,
      "Ġindeed": 1321,
      ".âĢĻ": 1322,
      "ped": 1323,
      "Ġinc": 1324,
      "Ġdoes": 1325,
      "su": 1326,
      "Ġhold": 1327,
      "Ġbegan": 1328,
      "wor": 1329,
      "Ġdif": 1330,
      "Ġwom": 1331,
      "Ġmis": 1332,
      "Ġinter": 1333,
      "Ġgot": 1334,
      "Ġke": 1335,
      "oll": 1336,
      "Ġ13": 1337,
      "Ġvis": 1338,
      "ina": 1339,
      "ceed": 1340,
      "Ġbro": 1341,
      "unt": 1342,
      "aut": 1343,
      "ron": 1344,
      "Ġasked": 1345,
      "erest": 1346,
      "ngth": 1347,
      "utenberg": 1348,
      "Ġgiv": 1349,
      "Ġref": 1350,
      "ract": 1351,
      "Ġprocess": 1352,
      "Ġcase": 1353,
      "aken": 1354,
      "Ġbetter": 1355,
      "arb": 1356,
      "Ġapp": 1357,
      "Ġel": 1358,
      "perm": 1359,
      "ove": 1360,
      "Ġentire": 1361,
      "arth": 1362,
      "ung": 1363,
      "Ġwhom": 1364,
      "Ġhome": 1365,
      "ĠBingley": 1366,
      "Ġhuman": 1367,
      "ev": 1368,
      "Ġdirect": 1369,
      "spect": 1370,
      "Ġquickly": 1371,
      "ably": 1372,
      "Ġpeople": 1373,
      "oud": 1374,
      "Ġnear": 1375,
      "ude": 1376,
      "ye": 1377,
      "Ġsile": 1378,
      "ster": 1379,
      "Ġalso": 1380,
      "inal": 1381,
      "str": 1382,
      "Ġnor": 1383,
      "Ġstand": 1384,
      "Ġsail": 1385,
      "Ġmatter": 1386,
      "Ġclear": 1387,
      "ired": 1388,
      "dden": 1389,
      "und": 1390,
      "Ġsou": 1391,
      "Ġsir": 1392,
      "Ġma": 1393,
      "Ġbus": 1394,
      "ĠLucy": 1395,
      "sc": 1396,
      "Ġherself": 1397,
      "Ġyears": 1398,
      "Ġturned": 1399,
      "ended": 1400,
      "Ġsure": 1401,
      "what": 1402,
      "Ġcare": 1403,
      "ately": 1404,
      "Ġdays": 1405,
      "ield": 1406,
      "Ġtoday": 1407,
      "lood": 1408,
      "Ġdeath": 1409,
      "Ġ18": 1410,
      "Ġwar": 1411,
      "Ġsudden": 1412,
      "Ġsister": 1413,
      "Ġgentle": 1414,
      "ĠJon": 1415,
      "Ġpassed": 1416,
      "ife": 1417,
      "Ġwater": 1418,
      "br": 1419,
      "Ġsk": 1420,
      "Ġch": 1421,
      "uring": 1422,
      "Ġless": 1423,
      "..": 1424,
      "Ġcor": 1425,
      "ances": 1426,
      "ceived": 1427,
      "ĠJane": 1428,
      "Ġperhaps": 1429,
      "Ġclose": 1430,
      "Ġbed": 1431,
      "Ġdead": 1432,
      "ĠAr": 1433,
      "iles": 1434,
      "Ġmet": 1435,
      "ĠHis": 1436,
      "Ġunderstand": 1437,
      "rem": 1438,
      "ren": 1439,
      "eeque": 1440,
      "ilt": 1441,
      "eequeg": 1442,
      "op": 1443,
      "ook": 1444,
      "Ġblack": 1445,
      "Ġgone": 1446,
      "ressed": 1447,
      "ully": 1448,
      "ock": 1449,
      "Ġbest": 1450,
      "this": 1451,
      "Ġsol": 1452,
      "there": 1453,
      "Ġ14": 1454,
      "Ġchild": 1455,
      "What": 1456,
      "have": 1457,
      "ments": 1458,
      "Ġanything": 1459,
      "Ġsince": 1460,
      "udd": 1461,
      "ready": 1462,
      "pl": 1463,
      "val": 1464,
      "reen": 1465,
      "ott": 1466,
      "Mr": 1467,
      "Oh": 1468,
      "Ġland": 1469,
      "vered": 1470,
      "ĠPe": 1471,
      "Ġfore": 1472,
      "Ġ15": 1473,
      "anger": 1474,
      "Ġinstant": 1475,
      "where": 1476,
      "Ġplease": 1477,
      "Ġcall": 1478,
      "Ġfav": 1479,
      "att": 1480,
      "ĠAt": 1481,
      "Ġext": 1482,
      "go": 1483,
      "Ġcirc": 1484,
      "ates": 1485,
      "ected": 1486,
      "Ġgoing": 1487,
      "Ġbelieve": 1488,
      "Ġwonder": 1489,
      "ĠU": 1490,
      "Ġdoubt": 1491,
      "cess": 1492,
      "stem": 1493,
      "ingly": 1494,
      "Ġlar": 1495,
      "mon": 1496,
      "lent": 1497,
      "Ġloc": 1498,
      "ĠStubb": 1499,
      "Ġwhe": 1500,
      "Ġconsider": 1501,
      "Ġcalled": 1502,
      "Ġsound": 1503,
      "Ġfre": 1504,
      "ask": 1505,
      "Ġcoming": 1506,
      "ains": 1507,
      "bour": 1508,
      "Ġhaving": 1509,
      "utes": 1510,
      "Ġrather": 1511,
      "eet": 1512,
      "Ġwhose": 1513,
      "selves": 1514,
      "ually": 1515,
      "orn": 1516,
      "anc": 1517,
      "ets": 1518,
      "ĠSo": 1519,
      "In": 1520,
      "Ġaw": 1521,
      "pre": 1522,
      "she": 1523,
      "Ġte": 1524,
      "no": 1525,
      "Ġmother": 1526,
      "Ġstart": 1527,
      "Ġstood": 1528,
      "ents": 1529,
      "Ġreason": 1530,
      "Ġcontin": 1531,
      "aring": 1532,
      "Ġ17": 1533,
      "Ġsystem": 1534,
      "how": 1535,
      "rible": 1536,
      "aint": 1537,
      "Ġleast": 1538,
      "ĠNo": 1539,
      "ship": 1540,
      "Ġfire": 1541,
      "ference": 1542,
      "Ġide": 1543,
      "Ġgave": 1544,
      "Ġrec": 1545,
      "Ġsec": 1546,
      "az": 1547,
      "Ġoften": 1548,
      "Ġgu": 1549,
      "cond": 1550,
      "ĠProject": 1551,
      "Ġwithin": 1552,
      "room": 1553,
      "Ġalong": 1554,
      "Ġsight": 1555,
      "ering": 1556,
      "ĠTh": 1557,
      "lad": 1558,
      "pping": 1559,
      "Ġwish": 1560,
      "Ġspeak": 1561,
      "Ġentirely": 1562,
      "Ġthou": 1563,
      "Ġcreated": 1564,
      "My": 1565,
      "Ġinv": 1566,
      "Ġpar": 1567,
      "amp": 1568,
      "Ġhat": 1569,
      "Ġ16": 1570,
      "++,": 1571,
      "There": 1572,
      "from": 1573,
      "iting": 1574,
      "any": 1575,
      "Ġuse": 1576,
      "Ġothers": 1577,
      "aid": 1578,
      "ier": 1579,
      "inc": 1580,
      "ides": 1581,
      "Ġred": 1582,
      "ĠGutenberg": 1583,
      "Ġinterest": 1584,
      "Ġfamily": 1585,
      "ler": 1586,
      "ustom": 1587,
      "fully": 1588,
      "Ġalone": 1589,
      "Ġtrans": 1590,
      "Ġwhales": 1591,
      "Ġtimes": 1592,
      "arr": 1593,
      "Ġequ": 1594,
      "Ġconf": 1595,
      "Ġcol": 1596,
      "Ġtogether": 1597,
      "riage": 1598,
      "Ġdro": 1599,
      "Ġres": 1600,
      "Ġshort": 1601,
      "ĠYo": 1602,
      "Ġharpo": 1603,
      "Ġcourse": 1604,
      "_.": 1605,
      "fect": 1606,
      "ru": 1607,
      "Ġsens": 1608,
      "Ġmast": 1609,
      "urning": 1610,
      "will": 1611,
      "lease": 1612,
      "Ġtoken": 1613,
      "Ġname": 1614,
      "ility": 1615,
      "owed": 1616,
      "used": 1617,
      "Ġletter": 1618,
      "Ġwoman": 1619,
      "Elizabeth": 1620,
      "Ġsim": 1621,
      "Ġblood": 1622,
      "uth": 1623,
      "Ġmanner": 1624,
      "Ġstrong": 1625,
      "Ġconc": 1626,
      "Ġfeet": 1627,
      "chan": 1628,
      "ouble": 1629,
      "Ġbody": 1630,
      "Ġdep": 1631,
      "Ġseems": 1632,
      "Ġill": 1633,
      "Ġbreat": 1634,
      "Ġreally": 1635,
      "Ġsuff": 1636,
      "though": 1637,
      "Ġunt": 1638,
      "solute": 1639,
      "ton": 1640,
      "Ġready": 1641,
      "iron": 1642,
      "ĠQueequeg": 1643,
      "Ġlooking": 1644,
      "ising": 1645,
      "Ġgir": 1646,
      "ĠMina": 1647,
      "ĠJust": 1648,
      "Ġsign": 1649,
      "Ġhor": 1650,
      "ickham": 1651,
      "Ġwindow": 1652,
      "ĠâĢĻ": 1653,
      "arbuck": 1654,
      "uddy": 1655,
      "bb": 1656,
      "yd": 1657,
      "Ġaffect": 1658,
      "ats": 1659,
      "Ġbecause": 1660,
      "Ġfour": 1661,
      "ustr": 1662,
      "Ġobser": 1663,
      "No": 1664,
      "We": 1665,
      "hind": 1666,
      "Ġturn": 1667,
      "Ġwhy": 1668,
      "Ġshar": 1669,
      "ale": 1670,
      "sed": 1671,
      "Ġleave": 1672,
      "ollins": 1673,
      "Yes": 1674,
      "Ġfur": 1675,
      "ident": 1676,
      "Ġbeaut": 1677,
      "Ġprom": 1678,
      "Ġarri": 1679,
      "ĠPlease": 1680,
      "Ġalready": 1681,
      "Ġspir": 1682,
      "Ġeye": 1683,
      "Ġwords": 1684,
      "Ġminutes": 1685,
      "When": 1686,
      "Ġes": 1687,
      "Ġart": 1688,
      "Ġlarge": 1689,
      "'t": 1690,
      "outh": 1691,
      "Ġbuddy": 1692,
      "ater": 1693,
      "Ġdeck": 1694,
      "ĠHey": 1695,
      "Ġtrue": 1696,
      "alked": 1697,
      "ĠCaptain": 1698,
      "Ġweather": 1699,
      "Ġfact": 1700,
      "ondon": 1701,
      "Ġmad": 1702,
      "Ġeas": 1703,
      "Ġthus": 1704,
      "Ġdev": 1705,
      "Ġlive": 1706,
      "ached": 1707,
      "iew": 1708,
      "Ġspec": 1709,
      "ued": 1710,
      "Ġstream": 1711,
      "Ġask": 1712,
      "ĠAll": 1713,
      "Ġseem": 1714,
      "Ġ40": 1715,
      "Ġwood": 1716,
      "Ġwild": 1717,
      "Ġdri": 1718,
      "Ġattention": 1719,
      "fessor": 1720,
      "Ġbusiness": 1721,
      "ters": 1722,
      "itude": 1723,
      "Ġstre": 1724,
      "ĠCount": 1725,
      "ĠAl": 1726,
      "Ġ24": 1727,
      "dis": 1728,
      "some": 1729,
      "Ġtaken": 1730,
      "Ġaff": 1731,
      "Ġfive": 1732,
      "Ġpower": 1733,
      "ically": 1734,
      "Ġknown": 1735,
      "Ġ28": 1736,
      "empt": 1737,
      "Ġhappy": 1738,
      "when": 1739,
      "Ġbright": 1740,
      "isf": 1741,
      "Ġinf": 1742,
      "Ġnext": 1743,
      "Ġform": 1744,
      "Ġsoul": 1745,
      "Ġtri": 1746,
      "ĠBe": 1747,
      "Ġspoke": 1748,
      "poss": 1749,
      "do": 1750,
      "side": 1751,
      "ided": 1752,
      "als": 1753,
      "Ġexcept": 1754,
      "Ġ26": 1755,
      "Ġwrite": 1756,
      "00": 1757,
      "band": 1758,
      "long": 1759,
      "py": 1760,
      "Ġearth": 1761,
      "Ġstri": 1762,
      "Ġfood": 1763,
      "Ġ96": 1764,
      "Ġeverything": 1765,
      ",âĢĻ": 1766,
      "ities": 1767,
      "Ġloss": 1768,
      "ĠOh": 1769,
      "Ġprev": 1770,
      "Ġcond": 1771,
      "Ġwhether": 1772,
      "quod": 1773,
      "Ġsever": 1774,
      "Ġpartic": 1775,
      "Ġperson": 1776,
      "ĠThat": 1777,
      "Ġglo": 1778,
      "ousand": 1779,
      "Ġbuild": 1780,
      "Ġgiven": 1781,
      "Ġsing": 1782,
      "orrow": 1783,
      "._--": 1784,
      "Ġvoice": 1785,
      "Ġtou": 1786,
      "Ġtalk": 1787,
      "ĠCollins": 1788,
      "Ġ19": 1789,
      "ĠLondon": 1790,
      "Ġchar": 1791,
      "Ġmeaning": 1792,
      "ydia": 1793,
      "tr": 1794,
      "were": 1795,
      "Ġlady": 1796,
      "Ġmeet": 1797,
      "ushed": 1798,
      "Ġidea": 1799,
      "Ġlad": 1800,
      "Ġmeans": 1801,
      "them": 1802,
      "akes": 1803,
      "Ġeng": 1804,
      "ĠStarbuck": 1805,
      "Ġworks": 1806,
      "This": 1807,
      "ĠWickham": 1808,
      "Ġlost": 1809,
      "raph": 1810,
      "Ġusing": 1811,
      "Ġreturn": 1812,
      "Ġnatural": 1813,
      "ah": 1814,
      "Ġmode": 1815,
      "Ġhur": 1816,
      "thur": 1817,
      "itted": 1818,
      "Ġcountry": 1819,
      "uff": 1820,
      "Ġcustom": 1821,
      "Ġexc": 1822,
      "ards": 1823,
      "Ġ27": 1824,
      "itting": 1825,
      "bed": 1826,
      "ead": 1827,
      "ene": 1828,
      "Ġcross": 1829,
      "Ġpain": 1830,
      "liar": 1831,
      "aged": 1832,
      "ĠNot": 1833,
      "Ġbrought": 1834,
      ",--": 1835,
      "would": 1836,
      "inct": 1837,
      "oun": 1838,
      "hand": 1839,
      "Ġdaught": 1840,
      "Ġtherefore": 1841,
      "Ġcommand": 1842,
      "board": 1843,
      "Ġeither": 1844,
      "Ġconvers": 1845,
      "usband": 1846,
      "Ġsubject": 1847,
      "gram": 1848,
      "Ġadvice": 1849,
      "fic": 1850,
      "len": 1851,
      "llustr": 1852,
      "Ġreal": 1853,
      "ledge": 1854,
      "Ġ22": 1855,
      "iously": 1856,
      "Ġanswered": 1857,
      "Ġbecame": 1858,
      "Ġpossible": 1859,
      "Ġfellow": 1860,
      "Well": 1861,
      "Ġcut": 1862,
      "Ġlau": 1863,
      "Ġrel": 1864,
      "Ġleg": 1865,
      "ĠEng": 1866,
      "Ġ59": 1867,
      "Ġadm": 1868,
      "form": 1869,
      "Ġsometimes": 1870,
      "Ġappear": 1871,
      "Ġuntil": 1872,
      "pose": 1873,
      "Ġtra": 1874,
      "Ġsent": 1875,
      "Ġwife": 1876,
      "ird": 1877,
      "aving": 1878,
      "aves": 1879,
      "Ġ81": 1880,
      "Ġhardly": 1881,
      "ixed": 1882,
      "Illustr": 1883,
      "old": 1884,
      "Ġbehind": 1885,
      "ĠLady": 1886,
      "Ġground": 1887,
      "Ġsurpr": 1888,
      "Illustration": 1889,
      "She": 1890,
      "Ġmur": 1891,
      "Ġmist": 1892,
      "asion": 1893,
      "ĠDr": 1894,
      "Ġevening": 1895,
      "ney": 1896,
      "Ġfriends": 1897,
      "ferent": 1898,
      "Ġaccount": 1899,
      "iety": 1900,
      "joy": 1901,
      "Ġbur": 1902,
      "Ġpat": 1903,
      "ĠWh": 1904,
      "Ġline": 1905,
      "Ġ69": 1906,
      "Ġ32": 1907,
      "Ġ57": 1908,
      "Ġreplied": 1909,
      "cle": 1910,
      "ging": 1911,
      "under": 1912,
      "Ġfin": 1913,
      "cho": 1914,
      "Ġsecond": 1915,
      "Ġ62": 1916,
      "arker": 1917,
      "Ġbreaking": 1918,
      "ination": 1919,
      "umst": 1920,
      "Ġ50": 1921,
      "Ġsuppose": 1922,
      "Ġwarm": 1923,
      "ĠJonathan": 1924,
      "ĠPequod": 1925,
      "As": 1926,
      "That": 1927,
      "spe": 1928,
      "Ġdat": 1929,
      "Ġarm": 1930,
      "Ġ23": 1931,
      "Ġ68": 1932,
      "Ġdisco": 1933,
      "Ġnature": 1934,
      "Ġelse": 1935,
      "ger": 1936,
      "oh": 1937,
      "over": 1938,
      "uc": 1939,
      "Ġopp": 1940,
      "Ġimag": 1941,
      "Ġ25": 1942,
      "Ġ97": 1943,
      "Ġsweet": 1944,
      "cause": 1945,
      "mo": 1946,
      "leg": 1947,
      "Ġfree": 1948,
      "eel": 1949,
      "efore": 1950,
      "ĠLydia": 1951,
      "Ġ64": 1952,
      "Ġ42": 1953,
      "Ġabsolute": 1954,
      "Ġremember": 1955,
      "ĠProfessor": 1956,
      "gu": 1957,
      "Ġquiet": 1958,
      "Ġ65": 1959,
      "Ġ84": 1960,
      "Ġvisit": 1961,
      "Ġjo": 1962,
      "Ġ67": 1963,
      "Ġ31": 1964,
      "Ġ72": 1965,
      "Ġopened": 1966,
      "Ġbreak": 1967,
      "Then": 1968,
      "Ġtown": 1969,
      "set": 1970,
      "Ġlength": 1971,
      "ĠOn": 1972,
      "Ġ63": 1973,
      "Ġ66": 1974,
      "Ġ95": 1975,
      "Ġcold": 1976,
      "Ġsuddenly": 1977,
      "io": 1978,
      "king": 1979,
      "Ġmere": 1980,
      "Ġchat": 1981,
      "Ġ34": 1982,
      "Ġ79": 1983,
      "Ġfeelings": 1984,
      "can": 1985,
      "your": 1986,
      "Ġ60": 1987,
      "Ġ48": 1988,
      "atherine": 1989,
      "Ġcertainly": 1990,
      "body": 1991,
      "could": 1992,
      "come": 1993,
      "Ġcrew": 1994,
      "Ġduring": 1995,
      "otion": 1996,
      "ending": 1997,
      "tern": 1998,
      "Ġ43": 1999
    },
    "merges": [
      [
        "Ġ",
        "t"
      ],
      [
        "Ġ",
        "a"
      ],
      [
        "č",
        "Ċ"
      ],
      [
        "h",
        "e"
      ],
      [
        "i",
        "n"
      ],
      [
        "Ġ",
        "s"
      ],
      [
        "n",
        "d"
      ],
      [
        "Ġ",
        "o"
      ],
      [
        "č",
        "čĊ"
      ],
      [
        "Ġ",
        "w"
      ],
      [
        "Ġt",
        "he"
      ],
      [
        "e",
        "r"
      ],
      [
        "o",
        "u"
      ],
      [
        "h",
        "a"
      ],
      [
        "Ġ",
        "m"
      ],
      [
        "r",
        "e"
      ],
      [
        "Ġ",
        "b"
      ],
      [
        "l",
        "e"
      ],
      [
        "s",
        "t"
      ],
      [
        "in",
        "g"
      ],
      [
        "e",
        "d"
      ],
      [
        "i",
        "s"
      ],
      [
        "i",
        "t"
      ],
      [
        "e",
        "n"
      ],
      [
        "o",
        "r"
      ],
      [
        "Ġo",
        "f"
      ],
      [
        "Ġ",
        "in"
      ],
      [
        "Ġ",
        "c"
      ],
      [
        "Ġt",
        "o"
      ],
      [
        "Ġa",
        "nd"
      ],
      [
        "o",
        "n"
      ],
      [
        "Ġ",
        "f"
      ],
      [
        "â",
        "Ģ"
      ],
      [
        "l",
        "l"
      ],
      [
        "a",
        "r"
      ],
      [
        "a",
        "t"
      ],
      [
        "a",
        "n"
      ],
      [
        "Ġ",
        "d"
      ],
      [
        "Ġ",
        "p"
      ],
      [
        "Ġ",
        "y"
      ],
      [
        "i",
        "m"
      ],
      [
        "e",
        "s"
      ],
      [
        "Ġ",
        "h"
      ],
      [
        "ha",
        "t"
      ],
      [
        "a",
        "s"
      ],
      [
        "o",
        "w"
      ],
      [
        "Ġy",
        "ou"
      ],
      [
        "Ġ",
        "I"
      ],
      [
        "o",
        "m"
      ],
      [
        "Ġ",
        "l"
      ],
      [
        "Ġ",
        "ha"
      ],
      [
        "c",
        "t"
      ],
      [
        "Ġ",
        "n"
      ],
      [
        "Ġ",
        "he"
      ],
      [
        "Ġ",
        "e"
      ],
      [
        "l",
        "y"
      ],
      [
        "f",
        "t"
      ],
      [
        "a",
        "st"
      ],
      [
        "c",
        "k"
      ],
      [
        "u",
        "t"
      ],
      [
        "Ġ",
        "is"
      ],
      [
        "c",
        "h"
      ],
      [
        "Ġs",
        "t"
      ],
      [
        "Ġ",
        "T"
      ],
      [
        "o",
        "t"
      ],
      [
        "en",
        "t"
      ],
      [
        "U",
        "s"
      ],
      [
        "a",
        "y"
      ],
      [
        "e",
        "nd"
      ],
      [
        "i",
        "d"
      ],
      [
        "Ġm",
        "e"
      ],
      [
        "v",
        "e"
      ],
      [
        "Ġb",
        "e"
      ],
      [
        "Ġ",
        "Ġ"
      ],
      [
        "e",
        "x"
      ],
      [
        "i",
        "on"
      ],
      [
        "y",
        "a"
      ],
      [
        "g",
        "ast"
      ],
      [
        "gast",
        "ya"
      ],
      [
        "ex",
        "t"
      ],
      [
        "a",
        "l"
      ],
      [
        "o",
        "ft"
      ],
      [
        "A",
        "gastya"
      ],
      [
        "<",
        "|"
      ],
      [
        "|",
        ">"
      ],
      [
        "Us",
        "er"
      ],
      [
        "end",
        "oft"
      ],
      [
        "endoft",
        "ext"
      ],
      [
        "l",
        "d"
      ],
      [
        "Ġ",
        "g"
      ],
      [
        ".",
        "<|"
      ],
      [
        "Ġ",
        "r"
      ],
      [
        "Ġt",
        "h"
      ],
      [
        "s",
        "e"
      ],
      [
        "Ġt",
        "hat"
      ],
      [
        "g",
        "h"
      ],
      [
        "c",
        "e"
      ],
      [
        "u",
        "r"
      ],
      [
        "âĢ",
        "ľ"
      ],
      [
        "p",
        "le"
      ],
      [
        "Ġa",
        "ll"
      ],
      [
        "Ġ",
        "it"
      ],
      [
        "v",
        "er"
      ],
      [
        "ĠT",
        "he"
      ],
      [
        "Ġw",
        "as"
      ],
      [
        "l",
        "i"
      ],
      [
        "r",
        "i"
      ],
      [
        "o",
        "d"
      ],
      [
        "u",
        "n"
      ],
      [
        "e",
        "e"
      ],
      [
        "b",
        "le"
      ],
      [
        "Ġo",
        "n"
      ],
      [
        "âĢ",
        "Ŀ"
      ],
      [
        "Ġf",
        "or"
      ],
      [
        "g",
        "e"
      ],
      [
        "l",
        "a"
      ],
      [
        "it",
        "h"
      ],
      [
        "Ġ",
        "W"
      ],
      [
        "Ġ",
        "re"
      ],
      [
        "Ġyou",
        "r"
      ],
      [
        "Ġa",
        "s"
      ],
      [
        "Ġw",
        "h"
      ],
      [
        "p",
        "t"
      ],
      [
        "Ġa",
        "n"
      ],
      [
        "Ġd",
        "e"
      ],
      [
        "Ġs",
        "u"
      ],
      [
        "Ġa",
        "t"
      ],
      [
        "âĢ",
        "Ļ"
      ],
      [
        "Ġh",
        "is"
      ],
      [
        "a",
        "ck"
      ],
      [
        "gh",
        "t"
      ],
      [
        "Ġw",
        "ith"
      ],
      [
        "e",
        "t"
      ],
      [
        "l",
        "o"
      ],
      [
        "Ġ",
        "S"
      ],
      [
        "ou",
        "ld"
      ],
      [
        "i",
        "r"
      ],
      [
        "a",
        "d"
      ],
      [
        "Ġm",
        "y"
      ],
      [
        "id",
        "e"
      ],
      [
        "m",
        "ent"
      ],
      [
        "Ġn",
        "ot"
      ],
      [
        "Ġ",
        "u"
      ],
      [
        "Ġ",
        "k"
      ],
      [
        "Ġc",
        "om"
      ],
      [
        "e",
        "ct"
      ],
      [
        "q",
        "u"
      ],
      [
        "he",
        "r"
      ],
      [
        "Ġ",
        "im"
      ],
      [
        "a",
        "ll"
      ],
      [
        "Ġ",
        "H"
      ],
      [
        "Ġm",
        "an"
      ],
      [
        "a",
        "ble"
      ],
      [
        "at",
        "ion"
      ],
      [
        "Ġst",
        "ack"
      ],
      [
        "u",
        "ct"
      ],
      [
        "Ġp",
        "r"
      ],
      [
        "Ġ",
        "C"
      ],
      [
        "Ġl",
        "i"
      ],
      [
        "Ġs",
        "a"
      ],
      [
        "t",
        "h"
      ],
      [
        "Ġw",
        "e"
      ],
      [
        "or",
        "y"
      ],
      [
        "Ġa",
        "r"
      ],
      [
        "ĠĠ",
        "ĠĠ"
      ],
      [
        "Ġw",
        "or"
      ],
      [
        "Ġin",
        "s"
      ],
      [
        "Ġb",
        "y"
      ],
      [
        "Ġha",
        "d"
      ],
      [
        "im",
        "e"
      ],
      [
        "Ġhe",
        "r"
      ],
      [
        "Ġme",
        "m"
      ],
      [
        "u",
        "l"
      ],
      [
        "ou",
        "nd"
      ],
      [
        "it",
        "y"
      ],
      [
        "ĠW",
        "hat"
      ],
      [
        "a",
        "in"
      ],
      [
        "Ġmem",
        "ory"
      ],
      [
        "re",
        "d"
      ],
      [
        "Ġins",
        "ide"
      ],
      [
        "n",
        "ing"
      ],
      [
        "ple",
        "ment"
      ],
      [
        "Ġim",
        "plement"
      ],
      [
        "Ġs",
        "o"
      ],
      [
        "u",
        "st"
      ],
      [
        "Ġs",
        "e"
      ],
      [
        "Ġ",
        "M"
      ],
      [
        "a",
        "ge"
      ],
      [
        "Ġe",
        "v"
      ],
      [
        "Ġt",
        "ime"
      ],
      [
        "i",
        "ll"
      ],
      [
        "k",
        "e"
      ],
      [
        "or",
        "t"
      ],
      [
        "a",
        "m"
      ],
      [
        "Ġs",
        "h"
      ],
      [
        "Ġha",
        "ve"
      ],
      [
        "as",
        "e"
      ],
      [
        "o",
        "re"
      ],
      [
        "Ġb",
        "ut"
      ],
      [
        "Ġh",
        "im"
      ],
      [
        "r",
        "ay"
      ],
      [
        "Ġ",
        "B"
      ],
      [
        "Ġd",
        "o"
      ],
      [
        "a",
        "v"
      ],
      [
        "Ġ",
        "A"
      ],
      [
        "a",
        "nd"
      ],
      [
        "s",
        "s"
      ],
      [
        "Ġar",
        "ray"
      ],
      [
        "er",
        "s"
      ],
      [
        "Ġwh",
        "i"
      ],
      [
        "all",
        "y"
      ],
      [
        "Ġ",
        "qu"
      ],
      [
        "Ġl",
        "o"
      ],
      [
        "er",
        "e"
      ],
      [
        "Ġst",
        "r"
      ],
      [
        ".",
        "âĢĿ"
      ],
      [
        "r",
        "om"
      ],
      [
        "i",
        "es"
      ],
      [
        "i",
        "c"
      ],
      [
        "p",
        "s"
      ],
      [
        "Ġr",
        "un"
      ],
      [
        "Ġe",
        "x"
      ],
      [
        "in",
        "t"
      ],
      [
        "t",
        "he"
      ],
      [
        "p",
        "e"
      ],
      [
        "p",
        "r"
      ],
      [
        "Ġrun",
        "ning"
      ],
      [
        "i",
        "ght"
      ],
      [
        "es",
        "s"
      ],
      [
        "i",
        "f"
      ],
      [
        "Ġsu",
        "m"
      ],
      [
        "Ġman",
        "age"
      ],
      [
        "Ġcom",
        "ple"
      ],
      [
        "Ġf",
        "o"
      ],
      [
        "ar",
        "y"
      ],
      [
        "Ġ",
        "le"
      ],
      [
        "al",
        "u"
      ],
      [
        "Ġh",
        "ow"
      ],
      [
        "Ġf",
        "rom"
      ],
      [
        "Ġu",
        "p"
      ],
      [
        "Ġ",
        "1"
      ],
      [
        "i",
        "z"
      ],
      [
        "j",
        "ect"
      ],
      [
        "om",
        "e"
      ],
      [
        "Ġwhi",
        "ch"
      ],
      [
        "Ġcomple",
        "x"
      ],
      [
        "i",
        "l"
      ],
      [
        "li",
        "z"
      ],
      [
        "Ġev",
        "alu"
      ],
      [
        "Ġevalu",
        "at"
      ],
      [
        "Ġm",
        "at"
      ],
      [
        "c",
        "ase"
      ],
      [
        "he",
        "n"
      ],
      [
        "Ġth",
        "is"
      ],
      [
        "Ġwor",
        "st"
      ],
      [
        "e",
        "f"
      ],
      [
        "Ġo",
        "b"
      ],
      [
        "o",
        "c"
      ],
      [
        "Ġcomplex",
        "ity"
      ],
      [
        "ar",
        "d"
      ],
      [
        "k",
        "ed"
      ],
      [
        "i",
        "ve"
      ],
      [
        "t",
        "o"
      ],
      [
        "Ġc",
        "on"
      ],
      [
        "Ġc",
        "le"
      ],
      [
        "ou",
        "r"
      ],
      [
        "Ġ",
        "j"
      ],
      [
        "ow",
        "s"
      ],
      [
        "ver",
        "y"
      ],
      [
        "Ġha",
        "s"
      ],
      [
        "Ġs",
        "he"
      ],
      [
        "i",
        "p"
      ],
      [
        "c",
        "ri"
      ],
      [
        "in",
        "d"
      ],
      [
        "Ġ",
        "P"
      ],
      [
        "lo",
        "ck"
      ],
      [
        "t",
        "er"
      ],
      [
        "Ġpr",
        "od"
      ],
      [
        "u",
        "b"
      ],
      [
        "ou",
        "s"
      ],
      [
        "r",
        "o"
      ],
      [
        "Ġk",
        "ee"
      ],
      [
        "iz",
        "ed"
      ],
      [
        "i",
        "ct"
      ],
      [
        "re",
        "e"
      ],
      [
        "o",
        "l"
      ],
      [
        "ch",
        "ing"
      ],
      [
        "Ġg",
        "o"
      ],
      [
        "Ġprod",
        "uct"
      ],
      [
        "cri",
        "pt"
      ],
      [
        "Ġw",
        "ere"
      ],
      [
        "l",
        "f"
      ],
      [
        "r",
        "a"
      ],
      [
        "ĠT",
        "o"
      ],
      [
        "Ġs",
        "ee"
      ],
      [
        "f",
        "f"
      ],
      [
        "Ġo",
        "r"
      ],
      [
        "Ġde",
        "c"
      ],
      [
        "Ġa",
        "re"
      ],
      [
        "Ġ",
        "âĢľ"
      ],
      [
        "Ġ",
        "v"
      ],
      [
        "Ġob",
        "ject"
      ],
      [
        "Ġ",
        "O"
      ],
      [
        "an",
        "t"
      ],
      [
        "p",
        "p"
      ],
      [
        "Ġb",
        "en"
      ],
      [
        "u",
        "e"
      ],
      [
        "in",
        "ary"
      ],
      [
        "Ġcle",
        "an"
      ],
      [
        "ha",
        "n"
      ],
      [
        "p",
        "la"
      ],
      [
        "Ġstr",
        "uct"
      ],
      [
        "Ġ",
        "ut"
      ],
      [
        "Ġo",
        "pt"
      ],
      [
        "Ġ",
        "J"
      ],
      [
        "Ġopt",
        "im"
      ],
      [
        "Ġw",
        "hat"
      ],
      [
        "e",
        "ll"
      ],
      [
        "ar",
        "ch"
      ],
      [
        "Ġn",
        "e"
      ],
      [
        "Ġfo",
        "ot"
      ],
      [
        "int",
        "s"
      ],
      [
        "Ġb",
        "ound"
      ],
      [
        "Ġp",
        "red"
      ],
      [
        "oc",
        "ation"
      ],
      [
        "Ġpred",
        "ict"
      ],
      [
        "âĢ",
        "Ķ"
      ],
      [
        "Ġstruct",
        "ur"
      ],
      [
        "Ġall",
        "ocation"
      ],
      [
        "Ġoptim",
        "ized"
      ],
      [
        "Ġdec",
        "la"
      ],
      [
        "ou",
        "t"
      ],
      [
        "Ġon",
        "e"
      ],
      [
        "Ġben",
        "ef"
      ],
      [
        "Ġ",
        "E"
      ],
      [
        "Ġb",
        "lock"
      ],
      [
        "ar",
        "ies"
      ],
      [
        "ou",
        "gh"
      ],
      [
        "Ġkee",
        "ps"
      ],
      [
        "i",
        "liz"
      ],
      [
        "u",
        "s"
      ],
      [
        "Ġbenef",
        "it"
      ],
      [
        "ar",
        "t"
      ],
      [
        "Ġdecla",
        "re"
      ],
      [
        "Ġ",
        "Us"
      ],
      [
        "on",
        "g"
      ],
      [
        "pr",
        "ints"
      ],
      [
        "Ġall",
        "ows"
      ],
      [
        "Ġfoot",
        "prints"
      ],
      [
        "Ġmat",
        "ching"
      ],
      [
        "Ġclean",
        "ly"
      ],
      [
        "Ġbound",
        "aries"
      ],
      [
        "Ġarray",
        "s"
      ],
      [
        "Ġut",
        "iliz"
      ],
      [
        "Ġpredict",
        "able"
      ],
      [
        "Ġstructur",
        "ally"
      ],
      [
        "ĠUs",
        "ing"
      ],
      [
        "Ġutiliz",
        "ing"
      ],
      [
        "Ġwh",
        "o"
      ],
      [
        "Ġn",
        "o"
      ],
      [
        "Ġk",
        "n"
      ],
      [
        "Ġa",
        "l"
      ],
      [
        "i",
        "st"
      ],
      [
        "pla",
        "in"
      ],
      [
        "o",
        "k"
      ],
      [
        "Ġha",
        "nd"
      ],
      [
        "on",
        "e"
      ],
      [
        "i",
        "ck"
      ],
      [
        "Ġthe",
        "re"
      ],
      [
        "u",
        "re"
      ],
      [
        "u",
        "m"
      ],
      [
        "Ġ",
        "G"
      ],
      [
        "-",
        "-"
      ],
      [
        "t",
        "her"
      ],
      [
        "Ġa",
        "m"
      ],
      [
        "ul",
        "t"
      ],
      [
        "ow",
        "n"
      ],
      [
        "Ġw",
        "hen"
      ],
      [
        "Ġ",
        "L"
      ],
      [
        "Ġbe",
        "en"
      ],
      [
        "le",
        "d"
      ],
      [
        "re",
        "at"
      ],
      [
        "a",
        "k"
      ],
      [
        "Ġqu",
        "e"
      ],
      [
        "f",
        "e"
      ],
      [
        "se",
        "lf"
      ],
      [
        "Ġs",
        "ome"
      ],
      [
        "Ġsa",
        "id"
      ],
      [
        "Ġb",
        "inary"
      ],
      [
        "Ġse",
        "arch"
      ],
      [
        "ĠH",
        "e"
      ],
      [
        "Ġ",
        "un"
      ],
      [
        "Ġc",
        "an"
      ],
      [
        "at",
        "e"
      ],
      [
        "Ġo",
        "ut"
      ],
      [
        "Ġ",
        "2"
      ],
      [
        "Ġthe",
        "y"
      ],
      [
        "n",
        "t"
      ],
      [
        "av",
        "a"
      ],
      [
        "Ġw",
        "ould"
      ],
      [
        "Ġ",
        "R"
      ],
      [
        "Ġw",
        "ay"
      ],
      [
        "li",
        "ed"
      ],
      [
        "Ġthe",
        "m"
      ],
      [
        "Ġw",
        "ill"
      ],
      [
        "Ġ",
        "D"
      ],
      [
        "Ġl",
        "in"
      ],
      [
        "it",
        "e"
      ],
      [
        "Ġ",
        "6"
      ],
      [
        "Ġn",
        "ow"
      ],
      [
        "a",
        "b"
      ],
      [
        "Ġc",
        "ould"
      ],
      [
        "ha",
        "le"
      ],
      [
        "it",
        "t"
      ],
      [
        "Ġa",
        "g"
      ],
      [
        "Ġ",
        "3"
      ],
      [
        "Ġ",
        "5"
      ],
      [
        "o",
        "st"
      ],
      [
        "Ġ",
        "4"
      ],
      [
        "Ġt",
        "able"
      ],
      [
        "i",
        "g"
      ],
      [
        "Ġli",
        "st"
      ],
      [
        ",",
        "âĢĿ"
      ],
      [
        "Ġa",
        "b"
      ],
      [
        "Ġan",
        "y"
      ],
      [
        "p",
        "er"
      ],
      [
        "Ġ",
        "if"
      ],
      [
        "Ġ",
        "9"
      ],
      [
        "Ġ",
        "8"
      ],
      [
        "Ġu",
        "s"
      ],
      [
        "Ġm",
        "ult"
      ],
      [
        "ĠH",
        "ow"
      ],
      [
        "ĠM",
        "r"
      ],
      [
        "o",
        "se"
      ],
      [
        "w",
        "ay"
      ],
      [
        "Ġ",
        "7"
      ],
      [
        "Ġmult",
        "ip"
      ],
      [
        "Ġmultip",
        "lied"
      ],
      [
        "Ġevaluat",
        "es"
      ],
      [
        "Ġp",
        "o"
      ],
      [
        "Ġm",
        "ore"
      ],
      [
        "Ġthe",
        "ir"
      ],
      [
        "he",
        "d"
      ],
      [
        "e",
        "m"
      ],
      [
        "Ġt",
        "ree"
      ],
      [
        "Ġ",
        "very"
      ],
      [
        "Ġs",
        "ha"
      ],
      [
        "Ġlin",
        "ked"
      ],
      [
        "Ġin",
        "to"
      ],
      [
        "a",
        "g"
      ],
      [
        "a",
        "ke"
      ],
      [
        ")",
        ".<|"
      ],
      [
        "Ġevaluat",
        "ed"
      ],
      [
        "Ġhas",
        "h"
      ],
      [
        "Ġque",
        "ue"
      ],
      [
        "am",
        "e"
      ],
      [
        "an",
        "ce"
      ],
      [
        "i",
        "ft"
      ],
      [
        "Ġp",
        "re"
      ],
      [
        "Ġthe",
        "n"
      ],
      [
        "v",
        "ed"
      ],
      [
        "Ġs",
        "ort"
      ],
      [
        "Ġf",
        "e"
      ],
      [
        "Ġt",
        "r"
      ],
      [
        "od",
        "e"
      ],
      [
        "he",
        "re"
      ],
      [
        "u",
        "d"
      ],
      [
        "Ġs",
        "p"
      ],
      [
        "en",
        "ce"
      ],
      [
        "h",
        "ing"
      ],
      [
        "?",
        "âĢĿ"
      ],
      [
        "i",
        "re"
      ],
      [
        "Ġ",
        "F"
      ],
      [
        "as",
        "s"
      ],
      [
        "Ġkn",
        "ow"
      ],
      [
        "in",
        "e"
      ],
      [
        "ĠĠĠĠ",
        "ĠĠĠĠ"
      ],
      [
        "f",
        "ore"
      ],
      [
        "ff",
        "ect"
      ],
      [
        "Ġo",
        "ver"
      ],
      [
        "e",
        "st"
      ],
      [
        "Ġup",
        "on"
      ],
      [
        "Ġs",
        "w"
      ],
      [
        "Ġli",
        "ke"
      ],
      [
        "Ġo",
        "ther"
      ],
      [
        "nd",
        "er"
      ],
      [
        "in",
        "k"
      ],
      [
        "a",
        "re"
      ],
      [
        "Ġm",
        "ust"
      ],
      [
        "Ġpr",
        "o"
      ],
      [
        "p",
        "ers"
      ],
      [
        "m",
        "ed"
      ],
      [
        "ing",
        "s"
      ],
      [
        "w",
        "n"
      ],
      [
        "u",
        "ch"
      ],
      [
        "is",
        "h"
      ],
      [
        "ĠC",
        "an"
      ],
      [
        "Ġ",
        "en"
      ],
      [
        "y",
        "th"
      ],
      [
        "n",
        "ess"
      ],
      [
        "ĠC",
        "ould"
      ],
      [
        "a",
        "c"
      ],
      [
        "at",
        "her"
      ],
      [
        "Ġt",
        "han"
      ],
      [
        "Ġw",
        "hale"
      ],
      [
        "Ġh",
        "o"
      ],
      [
        "ĠJ",
        "ava"
      ],
      [
        "Ġc",
        "o"
      ],
      [
        "Ġsh",
        "ow"
      ],
      [
        "Ġc",
        "ode"
      ],
      [
        "ub",
        "y"
      ],
      [
        "S",
        "cript"
      ],
      [
        "+",
        "+"
      ],
      [
        "Ġd",
        "own"
      ],
      [
        "yth",
        "on"
      ],
      [
        "a",
        "u"
      ],
      [
        "Ġ",
        "N"
      ],
      [
        "ĠB",
        "ut"
      ],
      [
        "ĠI",
        "t"
      ],
      [
        "Ġb",
        "o"
      ],
      [
        "n",
        "g"
      ],
      [
        "Ġag",
        "ain"
      ],
      [
        "Ġm",
        "ay"
      ],
      [
        "b",
        "er"
      ],
      [
        "ve",
        "lo"
      ],
      [
        "ive",
        "ly"
      ],
      [
        "Ġex",
        "plain"
      ],
      [
        "Ġ",
        "Y"
      ],
      [
        "Ġon",
        "ly"
      ],
      [
        "i",
        "ous"
      ],
      [
        "m",
        "e"
      ],
      [
        "ou",
        "ght"
      ],
      [
        "Ġd",
        "ay"
      ],
      [
        "ft",
        "er"
      ],
      [
        "p",
        "o"
      ],
      [
        "w",
        "ard"
      ],
      [
        "h",
        "i"
      ],
      [
        "Ġe",
        "ffect"
      ],
      [
        "ĠS",
        "ort"
      ],
      [
        "Ġr",
        "o"
      ],
      [
        "Ġsu",
        "ch"
      ],
      [
        "Ġd",
        "id"
      ],
      [
        "i",
        "ce"
      ],
      [
        "Ġa",
        "d"
      ],
      [
        "o",
        "f"
      ],
      [
        "itt",
        "le"
      ],
      [
        "ur",
        "n"
      ],
      [
        "Ġo",
        "ur"
      ],
      [
        "Ġde",
        "velo"
      ],
      [
        "Ġhand",
        "le"
      ],
      [
        "c",
        "y"
      ],
      [
        "Ġsa",
        "fe"
      ],
      [
        "ar",
        "k"
      ],
      [
        "r",
        "y"
      ],
      [
        "Ġdevelo",
        "pers"
      ],
      [
        "ou",
        "nt"
      ],
      [
        "Ġbe",
        "fore"
      ],
      [
        "c",
        "c"
      ],
      [
        "Ġt",
        "ell"
      ],
      [
        "Ġsh",
        "ould"
      ],
      [
        "i",
        "v"
      ],
      [
        "ĠE",
        "x"
      ],
      [
        "f",
        "or"
      ],
      [
        "Ġf",
        "a"
      ],
      [
        "Ġd",
        "is"
      ],
      [
        "Ġsafe",
        "ly"
      ],
      [
        "Q",
        "u"
      ],
      [
        "Ġproduct",
        "ion"
      ],
      [
        "ĠEx",
        "plain"
      ],
      [
        "Ġeffect",
        "ively"
      ],
      [
        "Ġt",
        "w"
      ],
      [
        "ion",
        "s"
      ],
      [
        "is",
        "e"
      ],
      [
        "ot",
        "her"
      ],
      [
        "Ġm",
        "uch"
      ],
      [
        "Ġl",
        "ittle"
      ],
      [
        "ĠS",
        "t"
      ],
      [
        "T",
        "he"
      ],
      [
        "b",
        "e"
      ],
      [
        "re",
        "ss"
      ],
      [
        "ar",
        "s"
      ],
      [
        "Ġp",
        "er"
      ],
      [
        "i",
        "le"
      ],
      [
        "f",
        "ul"
      ],
      [
        "ad",
        "e"
      ],
      [
        "le",
        "ss"
      ],
      [
        "h",
        "is"
      ],
      [
        "e",
        "ver"
      ],
      [
        "o",
        "od"
      ],
      [
        "Ġs",
        "c"
      ],
      [
        "Ġab",
        "out"
      ],
      [
        "Ġg",
        "reat"
      ],
      [
        "Ġsha",
        "ll"
      ],
      [
        "at",
        "ed"
      ],
      [
        "ad",
        "y"
      ],
      [
        "s",
        "h"
      ],
      [
        "Ġs",
        "ay"
      ],
      [
        "Ġg",
        "r"
      ],
      [
        "t",
        "hat"
      ],
      [
        "Ġb",
        "r"
      ],
      [
        "Ġs",
        "m"
      ],
      [
        "u",
        "ll"
      ],
      [
        "Ġ",
        "Qu"
      ],
      [
        "Ġha",
        "r"
      ],
      [
        "Ġa",
        "fter"
      ],
      [
        "Ġo",
        "wn"
      ],
      [
        "i",
        "e"
      ],
      [
        "Ġe",
        "very"
      ],
      [
        "Ġth",
        "ink"
      ],
      [
        "l",
        "ing"
      ],
      [
        "Ġit",
        "s"
      ],
      [
        "Ġ",
        "_"
      ],
      [
        "Ġp",
        "art"
      ],
      [
        "Ġl",
        "ong"
      ],
      [
        "Ġre",
        "m"
      ],
      [
        "!",
        "âĢĿ"
      ],
      [
        "p",
        "es"
      ],
      [
        "or",
        "d"
      ],
      [
        "n",
        "ot"
      ],
      [
        "er",
        "ed"
      ],
      [
        "Ġm",
        "ight"
      ],
      [
        "Ġy",
        "e"
      ],
      [
        "Ġhe",
        "re"
      ],
      [
        "s",
        "p"
      ],
      [
        "ri",
        "ed"
      ],
      [
        "Ġof",
        "f"
      ],
      [
        "ir",
        "st"
      ],
      [
        "er",
        "t"
      ],
      [
        "Ġf",
        "ee"
      ],
      [
        "Ġb",
        "ack"
      ],
      [
        "Ġin",
        "t"
      ],
      [
        "et",
        "h"
      ],
      [
        "c",
        "o"
      ],
      [
        "Ġe",
        "y"
      ],
      [
        "a",
        "p"
      ],
      [
        "Ġth",
        "r"
      ],
      [
        "m",
        "an"
      ],
      [
        "Ġev",
        "en"
      ],
      [
        "Ġp",
        "la"
      ],
      [
        "Ġlo",
        "ok"
      ],
      [
        "p",
        "en"
      ],
      [
        "Ġo",
        "ld"
      ],
      [
        "Ġ",
        "ent"
      ],
      [
        "Ġlo",
        "g"
      ],
      [
        "c",
        "ed"
      ],
      [
        "âĢ",
        "ĺ"
      ],
      [
        "Ġqu",
        "ick"
      ],
      [
        "is",
        "s"
      ],
      [
        "Ġd",
        "es"
      ],
      [
        "Ġc",
        "ame"
      ],
      [
        "a",
        "ch"
      ],
      [
        "Ġthe",
        "se"
      ],
      [
        "ĠĠĠĠ",
        "ĠĠ"
      ],
      [
        "er",
        "ge"
      ],
      [
        "ub",
        "ble"
      ],
      [
        "Ġth",
        "ough"
      ],
      [
        "liz",
        "ab"
      ],
      [
        "lizab",
        "eth"
      ],
      [
        "i",
        "ly"
      ],
      [
        "Ġgo",
        "od"
      ],
      [
        "d",
        "e"
      ],
      [
        "n",
        "e"
      ],
      [
        "Ġf",
        "ri"
      ],
      [
        "l",
        "s"
      ],
      [
        "Ġm",
        "ost"
      ],
      [
        "Ġwor",
        "k"
      ],
      [
        "Ġt",
        "y"
      ],
      [
        "Ġtw",
        "o"
      ],
      [
        "Ġ",
        "*"
      ],
      [
        "Ġw",
        "here"
      ],
      [
        "Ġa",
        "way"
      ],
      [
        "v",
        "ing"
      ],
      [
        "Ġc",
        "ha"
      ],
      [
        "Ġth",
        "ought"
      ],
      [
        "Ġat",
        "t"
      ],
      [
        "Ġsee",
        "med"
      ],
      [
        "Ġcom",
        "e"
      ],
      [
        "Ġwe",
        "ll"
      ],
      [
        "om",
        "et"
      ],
      [
        "Ġth",
        "ose"
      ],
      [
        "Ġne",
        "ver"
      ],
      [
        "Ġs",
        "pe"
      ],
      [
        "Ġf",
        "irst"
      ],
      [
        "ation",
        "s"
      ],
      [
        "Ġy",
        "et"
      ],
      [
        "w",
        "e"
      ],
      [
        "at",
        "h"
      ],
      [
        "Ġsa",
        "w"
      ],
      [
        "u",
        "ck"
      ],
      [
        "s",
        "o"
      ],
      [
        "ĠA",
        "nd"
      ],
      [
        "e",
        "p"
      ],
      [
        "Ġl",
        "ast"
      ],
      [
        "Ġm",
        "ade"
      ],
      [
        "an",
        "g"
      ],
      [
        "Ġto",
        "o"
      ],
      [
        "Ġle",
        "t"
      ],
      [
        "Ġsw",
        "ift"
      ],
      [
        "Ġu",
        "nder"
      ],
      [
        "s",
        "w"
      ],
      [
        "c",
        "on"
      ],
      [
        "Ġty",
        "pes"
      ],
      [
        "h",
        "o"
      ],
      [
        "Ġli",
        "fe"
      ],
      [
        "m",
        "s"
      ],
      [
        "Ġcon",
        "t"
      ],
      [
        "s",
        "ent"
      ],
      [
        "ĠS",
        "w"
      ],
      [
        "a",
        "ve"
      ],
      [
        "Ġst",
        "ill"
      ],
      [
        "Ġ",
        "V"
      ],
      [
        "i",
        "ed"
      ],
      [
        "Ġbe",
        "t"
      ],
      [
        "Ġfri",
        "end"
      ],
      [
        "an",
        "s"
      ],
      [
        "ig",
        "n"
      ],
      [
        "Ġp",
        "ass"
      ],
      [
        "i",
        "ble"
      ],
      [
        "v",
        "es"
      ],
      [
        "ak",
        "ing"
      ],
      [
        "Ġr",
        "ight"
      ],
      [
        "ĠG",
        "o"
      ],
      [
        "Ġr",
        "ust"
      ],
      [
        "Ġhe",
        "ad"
      ],
      [
        "Ġe",
        "ver"
      ],
      [
        "c",
        "es"
      ],
      [
        "i",
        "al"
      ],
      [
        "i",
        "ld"
      ],
      [
        "Ġw",
        "at"
      ],
      [
        "Ġthr",
        "ough"
      ],
      [
        "ĠS",
        "e"
      ],
      [
        "Ġp",
        "e"
      ],
      [
        "Ġcom",
        "p"
      ],
      [
        "Ġp",
        "le"
      ],
      [
        "Ġhe",
        "l"
      ],
      [
        "ĠT",
        "y"
      ],
      [
        "re",
        "w"
      ],
      [
        "ĠY",
        "ou"
      ],
      [
        "ĠSw",
        "ift"
      ],
      [
        "l",
        "t"
      ],
      [
        "Ġey",
        "es"
      ],
      [
        "d",
        "ay"
      ],
      [
        "Ġr",
        "uby"
      ],
      [
        "Ġmy",
        "self"
      ],
      [
        "Ġtypes",
        "cript"
      ],
      [
        "Ġn",
        "ight"
      ],
      [
        "Ġj",
        "av"
      ],
      [
        "Q",
        "L"
      ],
      [
        "q",
        "l"
      ],
      [
        "Ġa",
        "p"
      ],
      [
        "Ġs",
        "ql"
      ],
      [
        "ha",
        "b"
      ],
      [
        "Ġp",
        "ython"
      ],
      [
        "as",
        "cript"
      ],
      [
        "ĠS",
        "QL"
      ],
      [
        "pe",
        "Script"
      ],
      [
        "Ġj",
        "ava"
      ],
      [
        "ĠP",
        "ython"
      ],
      [
        "ĠR",
        "ust"
      ],
      [
        "ĠR",
        "uby"
      ],
      [
        "ĠJava",
        "Script"
      ],
      [
        "ĠTy",
        "peScript"
      ],
      [
        "Ġjav",
        "ascript"
      ],
      [
        "c",
        "om"
      ],
      [
        "f",
        "er"
      ],
      [
        "Ġbe",
        "ing"
      ],
      [
        "li",
        "ght"
      ],
      [
        "Ġw",
        "ent"
      ],
      [
        "m",
        "ost"
      ],
      [
        "Ġf",
        "ound"
      ],
      [
        "Ġbe",
        "g"
      ],
      [
        "m",
        "er"
      ],
      [
        "Ġcon",
        "s"
      ],
      [
        "Ġsh",
        "ip"
      ],
      [
        "Ġro",
        "om"
      ],
      [
        "ĠQu",
        "ick"
      ],
      [
        "ee",
        "p"
      ],
      [
        "Ġo",
        "pen"
      ],
      [
        "Ġw",
        "r"
      ],
      [
        "au",
        "se"
      ],
      [
        "en",
        "s"
      ],
      [
        "Ġe",
        "nd"
      ],
      [
        "way",
        "s"
      ],
      [
        "ou",
        "se"
      ],
      [
        "Ġex",
        "p"
      ],
      [
        "Ġm",
        "ind"
      ],
      [
        "Ġ1",
        "0"
      ],
      [
        "a",
        "red"
      ],
      [
        "a",
        "w"
      ],
      [
        "Ġm",
        "ake"
      ],
      [
        "ĠS",
        "he"
      ],
      [
        "ĠThe",
        "re"
      ],
      [
        "or",
        "s"
      ],
      [
        "Ġg",
        "et"
      ],
      [
        "Ġan",
        "sw"
      ],
      [
        "Ġc",
        "r"
      ],
      [
        "ĠE",
        "lizabeth"
      ],
      [
        "th",
        "ing"
      ],
      [
        "Ġa",
        "cc"
      ],
      [
        "Ġwith",
        "out"
      ],
      [
        "ert",
        "ain"
      ],
      [
        "Ġs",
        "omet"
      ],
      [
        "le",
        "ct"
      ],
      [
        "an",
        "e"
      ],
      [
        "i",
        "gh"
      ],
      [
        "m",
        "es"
      ],
      [
        "w",
        "ith"
      ],
      [
        "lo",
        "g"
      ],
      [
        "ĠĠĠĠĠĠĠĠ",
        "ĠĠĠĠĠĠĠĠ"
      ],
      [
        "ward",
        "s"
      ],
      [
        "n",
        "er"
      ],
      [
        "Ġsa",
        "me"
      ],
      [
        "Ġso",
        "on"
      ],
      [
        "Ġin",
        "st"
      ],
      [
        "in",
        "s"
      ],
      [
        "Ġse",
        "a"
      ],
      [
        "Ġhar",
        "d"
      ],
      [
        "o",
        "ked"
      ],
      [
        "Ġhel",
        "p"
      ],
      [
        "Ġhim",
        "self"
      ],
      [
        "Ġj",
        "ust"
      ],
      [
        "Ġw",
        "ind"
      ],
      [
        "Ġha",
        "pp"
      ],
      [
        "I",
        "t"
      ],
      [
        "b",
        "ut"
      ],
      [
        "g",
        "ed"
      ],
      [
        "Ġm",
        "en"
      ],
      [
        "l",
        "ow"
      ],
      [
        "im",
        "es"
      ],
      [
        "o",
        "ke"
      ],
      [
        "ar",
        "ly"
      ],
      [
        "or",
        "r"
      ],
      [
        "Ġd",
        "ist"
      ],
      [
        "in",
        "ess"
      ],
      [
        "Ġre",
        "t"
      ],
      [
        "E",
        "R"
      ],
      [
        "Ġc",
        "al"
      ],
      [
        "B",
        "ut"
      ],
      [
        "a",
        "pt"
      ],
      [
        "en",
        "ed"
      ],
      [
        "he",
        "s"
      ],
      [
        "Ġde",
        "ar"
      ],
      [
        "Ġm",
        "ar"
      ],
      [
        "Ġc",
        "l"
      ],
      [
        ":",
        "--"
      ],
      [
        "ot",
        "h"
      ],
      [
        "urn",
        "ed"
      ],
      [
        "Ġon",
        "ce"
      ],
      [
        "Ġcom",
        "m"
      ],
      [
        "ĠW",
        "e"
      ],
      [
        "i",
        "ent"
      ],
      [
        "re",
        "t"
      ],
      [
        "Ġs",
        "le"
      ],
      [
        "Ġp",
        "a"
      ],
      [
        "le",
        "y"
      ],
      [
        "Ġr",
        "ound"
      ],
      [
        "Ġfa",
        "ce"
      ],
      [
        "Ġbe",
        "c"
      ],
      [
        "ure",
        "s"
      ],
      [
        "om",
        "ent"
      ],
      [
        "ĠP",
        "ro"
      ],
      [
        "ĠA",
        "hab"
      ],
      [
        "k",
        "s"
      ],
      [
        "b",
        "o"
      ],
      [
        "w",
        "as"
      ],
      [
        "b",
        "y"
      ],
      [
        "Ġt",
        "er"
      ],
      [
        "ol",
        "mes"
      ],
      [
        "Ġnot",
        "hing"
      ],
      [
        "Ġp",
        "l"
      ],
      [
        "ĠI",
        "n"
      ],
      [
        "Ġre",
        "p"
      ],
      [
        "Ġl",
        "ay"
      ],
      [
        "t",
        "e"
      ],
      [
        "Ġman",
        "y"
      ],
      [
        "Ġs",
        "ide"
      ],
      [
        "Ġsu",
        "b"
      ],
      [
        "v",
        "en"
      ],
      [
        "Ġhe",
        "art"
      ],
      [
        "!",
        "<|"
      ],
      [
        "d",
        "en"
      ],
      [
        "g",
        "r"
      ],
      [
        "t",
        "ing"
      ],
      [
        "Ġbo",
        "at"
      ],
      [
        "Ġm",
        "o"
      ],
      [
        "Ġg",
        "l"
      ],
      [
        "Ġf",
        "ind"
      ],
      [
        "an",
        "ge"
      ],
      [
        "Ġhe",
        "ard"
      ],
      [
        "Ġwor",
        "ld"
      ],
      [
        "Ġto",
        "ok"
      ],
      [
        "Ġdo",
        "or"
      ],
      [
        "H",
        "A"
      ],
      [
        "er",
        "y"
      ],
      [
        "Ġwhi",
        "le"
      ],
      [
        "o",
        "nd"
      ],
      [
        "Ġc",
        "reat"
      ],
      [
        "Ġh",
        "ouse"
      ],
      [
        "Ġth",
        "ings"
      ],
      [
        "Ġg",
        "ive"
      ],
      [
        "Ġwor",
        "d"
      ],
      [
        "ar",
        "cy"
      ],
      [
        "ĠF",
        "or"
      ],
      [
        "Ġb",
        "l"
      ],
      [
        "Ġc",
        "ar"
      ],
      [
        "Ġn",
        "at"
      ],
      [
        "li",
        "e"
      ],
      [
        "ĠMr",
        "s"
      ],
      [
        "Ġs",
        "y"
      ],
      [
        "or",
        "ning"
      ],
      [
        "Ġse",
        "en"
      ],
      [
        "e",
        "w"
      ],
      [
        "k",
        "en"
      ],
      [
        "a",
        "ct"
      ],
      [
        "Ġf",
        "ar"
      ],
      [
        "ic",
        "al"
      ],
      [
        "Ġpla",
        "ce"
      ],
      [
        "c",
        "l"
      ],
      [
        "Ġm",
        "oment"
      ],
      [
        "is",
        "hed"
      ],
      [
        "s",
        "er"
      ],
      [
        "Ġth",
        "ree"
      ],
      [
        "in",
        "ed"
      ],
      [
        "en",
        "er"
      ],
      [
        "Ġc",
        "ur"
      ],
      [
        "Ġh",
        "um"
      ],
      [
        "Ġli",
        "ght"
      ],
      [
        "pr",
        "o"
      ],
      [
        "le",
        "s"
      ],
      [
        "ĠM",
        "y"
      ],
      [
        "ri",
        "ght"
      ],
      [
        "T",
        "ER"
      ],
      [
        "a",
        "il"
      ],
      [
        "c",
        "hed"
      ],
      [
        "ce",
        "pt"
      ],
      [
        "w",
        "hi"
      ],
      [
        "Ġs",
        "un"
      ],
      [
        "on",
        "s"
      ],
      [
        "ĠH",
        "olmes"
      ],
      [
        "ĠG",
        "od"
      ],
      [
        "o",
        "s"
      ],
      [
        "Ġb",
        "re"
      ],
      [
        "a",
        "ce"
      ],
      [
        "Ġad",
        "v"
      ],
      [
        "it",
        "her"
      ],
      [
        "Ġt",
        "ake"
      ],
      [
        "Ġc",
        "lo"
      ],
      [
        "Ġs",
        "at"
      ],
      [
        "li",
        "c"
      ],
      [
        "Ġsu",
        "pp"
      ],
      [
        "Ġlo",
        "oked"
      ],
      [
        "Ġque",
        "st"
      ],
      [
        "u",
        "p"
      ],
      [
        "re",
        "am"
      ],
      [
        "s",
        "ol"
      ],
      [
        "t",
        "ed"
      ],
      [
        "in",
        "ce"
      ],
      [
        "d",
        "er"
      ],
      [
        "n",
        "ow"
      ],
      [
        "Ġb",
        "u"
      ],
      [
        "h",
        "y"
      ],
      [
        "t",
        "y"
      ],
      [
        "Ġim",
        "p"
      ],
      [
        ".",
        "_"
      ],
      [
        "P",
        "TER"
      ],
      [
        "HA",
        "PTER"
      ],
      [
        "Ġyou",
        "ng"
      ],
      [
        "ĠD",
        "arcy"
      ],
      [
        "ll",
        "ow"
      ],
      [
        "ra",
        "ve"
      ],
      [
        "en",
        "n"
      ],
      [
        "ent",
        "ion"
      ],
      [
        "Ġal",
        "ways"
      ],
      [
        "Ġs",
        "et"
      ],
      [
        "Ġlo",
        "ve"
      ],
      [
        "en",
        "se"
      ],
      [
        "Ġre",
        "st"
      ],
      [
        "Ġa",
        "c"
      ],
      [
        "m",
        "ing"
      ],
      [
        "Ġs",
        "ur"
      ],
      [
        "Ġm",
        "in"
      ],
      [
        "ĠM",
        "iss"
      ],
      [
        "ain",
        "ed"
      ],
      [
        "a",
        "ir"
      ],
      [
        "Ġw",
        "ant"
      ],
      [
        "Ġfe",
        "w"
      ],
      [
        "apt",
        "ain"
      ],
      [
        "Ġhow",
        "ever"
      ],
      [
        "Ġhand",
        "s"
      ],
      [
        "Ġfee",
        "l"
      ],
      [
        "Ġa",
        "gastya"
      ],
      [
        "C",
        "HAPTER"
      ],
      [
        "Ġas",
        "s"
      ],
      [
        "al",
        "k"
      ],
      [
        "A",
        "nd"
      ],
      [
        "Ġth",
        "ing"
      ],
      [
        "er",
        "n"
      ],
      [
        "od",
        "y"
      ],
      [
        "ro",
        "ss"
      ],
      [
        "Ġb",
        "ubble"
      ],
      [
        "Ġd",
        "on"
      ],
      [
        "i",
        "b"
      ],
      [
        "i",
        "x"
      ],
      [
        "Ġc",
        "ertain"
      ],
      [
        "Ġap",
        "pe"
      ],
      [
        "ou",
        "b"
      ],
      [
        "o",
        "y"
      ],
      [
        "he",
        "ad"
      ],
      [
        "Ġfe",
        "lt"
      ],
      [
        "i",
        "et"
      ],
      [
        "it",
        "ion"
      ],
      [
        "Ġm",
        "on"
      ],
      [
        "y",
        "ou"
      ],
      [
        "ut",
        "e"
      ],
      [
        "Ġp",
        "ut"
      ],
      [
        "H",
        "e"
      ],
      [
        "ha",
        "r"
      ],
      [
        "is",
        "ed"
      ],
      [
        "Ġpo",
        "ss"
      ],
      [
        "Ġm",
        "erge"
      ],
      [
        "Ġa",
        "ct"
      ],
      [
        "Ġme",
        "an"
      ],
      [
        "Ġansw",
        "er"
      ],
      [
        "it",
        "s"
      ],
      [
        "ĠM",
        "erge"
      ],
      [
        "ĠB",
        "inary"
      ],
      [
        "ĠB",
        "ubble"
      ],
      [
        "Ġpre",
        "sent"
      ],
      [
        "ĠSe",
        "arch"
      ],
      [
        "Y",
        "ou"
      ],
      [
        "st",
        "and"
      ],
      [
        "Ġd",
        "one"
      ],
      [
        "Ġsomet",
        "hing"
      ],
      [
        "u",
        "red"
      ],
      [
        "Ġm",
        "orning"
      ],
      [
        "la",
        "nd"
      ],
      [
        "au",
        "ght"
      ],
      [
        "Ġc",
        "ried"
      ],
      [
        "âĢľ",
        "âĢĺ"
      ],
      [
        "ver",
        "s"
      ],
      [
        "ar",
        "n"
      ],
      [
        "Ġne",
        "w"
      ],
      [
        "Ġal",
        "most"
      ],
      [
        "ĠD",
        "o"
      ],
      [
        "Ġsm",
        "all"
      ],
      [
        "we",
        "en"
      ],
      [
        "it",
        "ed"
      ],
      [
        "Ġle",
        "ft"
      ],
      [
        "Ġf",
        "ather"
      ],
      [
        "ha",
        "ps"
      ],
      [
        "Ġpo",
        "or"
      ],
      [
        "enn",
        "et"
      ],
      [
        "Ġ",
        "K"
      ],
      [
        "Ġcan",
        "not"
      ],
      [
        "ow",
        "er"
      ],
      [
        "ĠL",
        "u"
      ],
      [
        "ĠThe",
        "n"
      ],
      [
        "Ġwho",
        "le"
      ],
      [
        "Ġc",
        "hi"
      ],
      [
        "Ġwh",
        "ite"
      ],
      [
        "qu",
        "e"
      ],
      [
        "Ġ",
        "âĢĺ"
      ],
      [
        "at",
        "ing"
      ],
      [
        "as",
        "on"
      ],
      [
        "Ġe",
        "m"
      ],
      [
        "Ġp",
        "ur"
      ],
      [
        "Ġk",
        "ind"
      ],
      [
        "Ġc",
        "our"
      ],
      [
        "Ġt",
        "ill"
      ],
      [
        "Ġs",
        "ist"
      ],
      [
        "Ġin",
        "de"
      ],
      [
        "u",
        "al"
      ],
      [
        "Ġo",
        "cc"
      ],
      [
        "ul",
        "ar"
      ],
      [
        "Ġhe",
        "ar"
      ],
      [
        "i",
        "a"
      ],
      [
        "Ġc",
        "han"
      ],
      [
        "ĠI",
        "f"
      ],
      [
        "re",
        "ad"
      ],
      [
        "Ġam",
        "ong"
      ],
      [
        "Ġsle",
        "ep"
      ],
      [
        "n",
        "ce"
      ],
      [
        "Ġv",
        "o"
      ],
      [
        "f",
        "ess"
      ],
      [
        "se",
        "l"
      ],
      [
        "f",
        "ort"
      ],
      [
        "Ġad",
        "d"
      ],
      [
        "Ġha",
        "lf"
      ],
      [
        "m",
        "y"
      ],
      [
        "Ġto",
        "wards"
      ],
      [
        "Ġ1",
        "2"
      ],
      [
        "em",
        "ber"
      ],
      [
        "Ġquest",
        "ion"
      ],
      [
        "Ġc",
        "he"
      ],
      [
        "Ġf",
        "ull"
      ],
      [
        "as",
        "h"
      ],
      [
        "Ġe",
        "ach"
      ],
      [
        "Ġst",
        "e"
      ],
      [
        "la",
        "ck"
      ],
      [
        "Ġan",
        "other"
      ],
      [
        "Ġpr",
        "oc"
      ],
      [
        "if",
        "ic"
      ],
      [
        "at",
        "han"
      ],
      [
        "Ġh",
        "our"
      ],
      [
        "ĠT",
        "his"
      ],
      [
        "ĠA",
        "s"
      ],
      [
        "whi",
        "ch"
      ],
      [
        "u",
        "g"
      ],
      [
        "Ġs",
        "er"
      ],
      [
        "an",
        "k"
      ],
      [
        "ge",
        "ther"
      ],
      [
        "e",
        "l"
      ],
      [
        "ent",
        "ly"
      ],
      [
        "ĠThe",
        "y"
      ],
      [
        "Ġfe",
        "ar"
      ],
      [
        "n",
        "ight"
      ],
      [
        "Ġf",
        "ell"
      ],
      [
        "Ġd",
        "ark"
      ],
      [
        "Ġagain",
        "st"
      ],
      [
        "ire",
        "ct"
      ],
      [
        "h",
        "im"
      ],
      [
        "Ġin",
        "d"
      ],
      [
        "Ġf",
        "am"
      ],
      [
        "ĠW",
        "hale"
      ],
      [
        "ĠB",
        "ennet"
      ],
      [
        "Ġqu",
        "ite"
      ],
      [
        "Ġbe",
        "lie"
      ],
      [
        "ri",
        "c"
      ],
      [
        "ls",
        "ing"
      ],
      [
        "i",
        "led"
      ],
      [
        "Ġkn",
        "ew"
      ],
      [
        "po",
        "s"
      ],
      [
        "m",
        "en"
      ],
      [
        "ing",
        "ley"
      ],
      [
        "Ġen",
        "ough"
      ],
      [
        "Ġre",
        "ad"
      ],
      [
        "Ġ1",
        "1"
      ],
      [
        "ub",
        "b"
      ],
      [
        "i",
        "ence"
      ],
      [
        "Ġw",
        "o"
      ],
      [
        "Ġg",
        "ener"
      ],
      [
        "o",
        "ple"
      ],
      [
        "y",
        "ing"
      ],
      [
        "Ġto",
        "ld"
      ],
      [
        "Ġd",
        "eep"
      ],
      [
        "li",
        "ke"
      ],
      [
        "pp",
        "ed"
      ],
      [
        "i",
        "an"
      ],
      [
        "Ġho",
        "pe"
      ],
      [
        "p",
        "h"
      ],
      [
        "id",
        "er"
      ],
      [
        "ur",
        "al"
      ],
      [
        "i",
        "ved"
      ],
      [
        "Ġp",
        "ers"
      ],
      [
        "ir",
        "c"
      ],
      [
        "Ġple",
        "as"
      ],
      [
        "Ġkee",
        "p"
      ],
      [
        "t",
        "en"
      ],
      [
        "at",
        "ter"
      ],
      [
        "Ġb",
        "oth"
      ],
      [
        "Ġd",
        "ra"
      ],
      [
        "Ġbet",
        "ween"
      ],
      [
        "ha",
        "d"
      ],
      [
        "Ġf",
        "l"
      ],
      [
        "Ġstr",
        "ange"
      ],
      [
        "c",
        "u"
      ],
      [
        "Ġh",
        "igh"
      ],
      [
        "ent",
        "le"
      ],
      [
        "Ġfo",
        "llow"
      ],
      [
        "ha",
        "m"
      ],
      [
        "Ġne",
        "ed"
      ],
      [
        "Ġpo",
        "int"
      ],
      [
        "ber",
        "g"
      ],
      [
        "Ġw",
        "a"
      ],
      [
        "ut",
        "en"
      ],
      [
        "Ġd",
        "oub"
      ],
      [
        "Ġc",
        "ount"
      ],
      [
        "Ġre",
        "g"
      ],
      [
        "ĠHe",
        "lsing"
      ],
      [
        "ĠV",
        "an"
      ],
      [
        "Ġa",
        "ir"
      ],
      [
        "Ġhe",
        "av"
      ],
      [
        "ĠW",
        "hen"
      ],
      [
        "Ġ",
        "("
      ],
      [
        "Ġinde",
        "ed"
      ],
      [
        ".",
        "âĢĻ"
      ],
      [
        "p",
        "ed"
      ],
      [
        "Ġin",
        "c"
      ],
      [
        "Ġdo",
        "es"
      ],
      [
        "s",
        "u"
      ],
      [
        "Ġho",
        "ld"
      ],
      [
        "Ġbeg",
        "an"
      ],
      [
        "w",
        "or"
      ],
      [
        "Ġd",
        "if"
      ],
      [
        "Ġw",
        "om"
      ],
      [
        "Ġm",
        "is"
      ],
      [
        "Ġin",
        "ter"
      ],
      [
        "Ġg",
        "ot"
      ],
      [
        "Ġk",
        "e"
      ],
      [
        "o",
        "ll"
      ],
      [
        "Ġ1",
        "3"
      ],
      [
        "Ġv",
        "is"
      ],
      [
        "in",
        "a"
      ],
      [
        "ce",
        "ed"
      ],
      [
        "Ġb",
        "ro"
      ],
      [
        "un",
        "t"
      ],
      [
        "a",
        "ut"
      ],
      [
        "r",
        "on"
      ],
      [
        "Ġas",
        "ked"
      ],
      [
        "ere",
        "st"
      ],
      [
        "ng",
        "th"
      ],
      [
        "uten",
        "berg"
      ],
      [
        "Ġg",
        "iv"
      ],
      [
        "Ġre",
        "f"
      ],
      [
        "ra",
        "ct"
      ],
      [
        "Ġproc",
        "ess"
      ],
      [
        "Ġc",
        "ase"
      ],
      [
        "ak",
        "en"
      ],
      [
        "Ġbet",
        "ter"
      ],
      [
        "ar",
        "b"
      ],
      [
        "Ġa",
        "pp"
      ],
      [
        "Ġe",
        "l"
      ],
      [
        "per",
        "m"
      ],
      [
        "o",
        "ve"
      ],
      [
        "Ġent",
        "ire"
      ],
      [
        "ar",
        "th"
      ],
      [
        "un",
        "g"
      ],
      [
        "Ġwh",
        "om"
      ],
      [
        "Ġh",
        "ome"
      ],
      [
        "ĠB",
        "ingley"
      ],
      [
        "Ġhum",
        "an"
      ],
      [
        "e",
        "v"
      ],
      [
        "Ġd",
        "irect"
      ],
      [
        "sp",
        "ect"
      ],
      [
        "Ġquick",
        "ly"
      ],
      [
        "ab",
        "ly"
      ],
      [
        "Ġpe",
        "ople"
      ],
      [
        "ou",
        "d"
      ],
      [
        "Ġne",
        "ar"
      ],
      [
        "ud",
        "e"
      ],
      [
        "y",
        "e"
      ],
      [
        "Ġs",
        "ile"
      ],
      [
        "st",
        "er"
      ],
      [
        "Ġal",
        "so"
      ],
      [
        "in",
        "al"
      ],
      [
        "st",
        "r"
      ],
      [
        "Ġn",
        "or"
      ],
      [
        "Ġst",
        "and"
      ],
      [
        "Ġsa",
        "il"
      ],
      [
        "Ġmat",
        "ter"
      ],
      [
        "Ġcle",
        "ar"
      ],
      [
        "i",
        "red"
      ],
      [
        "d",
        "den"
      ],
      [
        "u",
        "nd"
      ],
      [
        "Ġs",
        "ou"
      ],
      [
        "Ġs",
        "ir"
      ],
      [
        "Ġm",
        "a"
      ],
      [
        "Ġb",
        "us"
      ],
      [
        "ĠLu",
        "cy"
      ],
      [
        "s",
        "c"
      ],
      [
        "Ġher",
        "self"
      ],
      [
        "Ġye",
        "ars"
      ],
      [
        "Ġt",
        "urned"
      ],
      [
        "end",
        "ed"
      ],
      [
        "Ġsu",
        "re"
      ],
      [
        "w",
        "hat"
      ],
      [
        "Ġc",
        "are"
      ],
      [
        "ate",
        "ly"
      ],
      [
        "Ġday",
        "s"
      ],
      [
        "ie",
        "ld"
      ],
      [
        "Ġto",
        "day"
      ],
      [
        "lo",
        "od"
      ],
      [
        "Ġde",
        "ath"
      ],
      [
        "Ġ1",
        "8"
      ],
      [
        "Ġw",
        "ar"
      ],
      [
        "Ġsu",
        "dden"
      ],
      [
        "Ġsist",
        "er"
      ],
      [
        "Ġg",
        "entle"
      ],
      [
        "ĠJ",
        "on"
      ],
      [
        "Ġpass",
        "ed"
      ],
      [
        "if",
        "e"
      ],
      [
        "Ġwat",
        "er"
      ],
      [
        "b",
        "r"
      ],
      [
        "Ġs",
        "k"
      ],
      [
        "Ġc",
        "h"
      ],
      [
        "ur",
        "ing"
      ],
      [
        "Ġle",
        "ss"
      ],
      [
        ".",
        "."
      ],
      [
        "Ġc",
        "or"
      ],
      [
        "an",
        "ces"
      ],
      [
        "ce",
        "ived"
      ],
      [
        "ĠJ",
        "ane"
      ],
      [
        "Ġper",
        "haps"
      ],
      [
        "Ġclo",
        "se"
      ],
      [
        "Ġb",
        "ed"
      ],
      [
        "Ġde",
        "ad"
      ],
      [
        "ĠA",
        "r"
      ],
      [
        "ile",
        "s"
      ],
      [
        "Ġme",
        "t"
      ],
      [
        "ĠH",
        "is"
      ],
      [
        "Ġunder",
        "stand"
      ],
      [
        "re",
        "m"
      ],
      [
        "re",
        "n"
      ],
      [
        "ee",
        "que"
      ],
      [
        "il",
        "t"
      ],
      [
        "eeque",
        "g"
      ],
      [
        "o",
        "p"
      ],
      [
        "o",
        "ok"
      ],
      [
        "Ġb",
        "lack"
      ],
      [
        "Ġg",
        "one"
      ],
      [
        "ress",
        "ed"
      ],
      [
        "ull",
        "y"
      ],
      [
        "o",
        "ck"
      ],
      [
        "Ġbe",
        "st"
      ],
      [
        "th",
        "is"
      ],
      [
        "Ġso",
        "l"
      ],
      [
        "the",
        "re"
      ],
      [
        "Ġ1",
        "4"
      ],
      [
        "Ġchi",
        "ld"
      ],
      [
        "W",
        "hat"
      ],
      [
        "ha",
        "ve"
      ],
      [
        "ment",
        "s"
      ],
      [
        "Ġany",
        "thing"
      ],
      [
        "Ġs",
        "ince"
      ],
      [
        "ud",
        "d"
      ],
      [
        "re",
        "ady"
      ],
      [
        "p",
        "l"
      ],
      [
        "v",
        "al"
      ],
      [
        "re",
        "en"
      ],
      [
        "ot",
        "t"
      ],
      [
        "M",
        "r"
      ],
      [
        "O",
        "h"
      ],
      [
        "Ġl",
        "and"
      ],
      [
        "ver",
        "ed"
      ],
      [
        "ĠP",
        "e"
      ],
      [
        "Ġf",
        "ore"
      ],
      [
        "Ġ1",
        "5"
      ],
      [
        "ang",
        "er"
      ],
      [
        "Ġinst",
        "ant"
      ],
      [
        "w",
        "here"
      ],
      [
        "Ġple",
        "ase"
      ],
      [
        "Ġc",
        "all"
      ],
      [
        "Ġf",
        "av"
      ],
      [
        "at",
        "t"
      ],
      [
        "ĠA",
        "t"
      ],
      [
        "Ġex",
        "t"
      ],
      [
        "g",
        "o"
      ],
      [
        "Ġc",
        "irc"
      ],
      [
        "at",
        "es"
      ],
      [
        "ect",
        "ed"
      ],
      [
        "Ġgo",
        "ing"
      ],
      [
        "Ġbelie",
        "ve"
      ],
      [
        "Ġwo",
        "nder"
      ],
      [
        "Ġ",
        "U"
      ],
      [
        "Ġdoub",
        "t"
      ],
      [
        "c",
        "ess"
      ],
      [
        "st",
        "em"
      ],
      [
        "ing",
        "ly"
      ],
      [
        "Ġl",
        "ar"
      ],
      [
        "m",
        "on"
      ],
      [
        "le",
        "nt"
      ],
      [
        "Ġlo",
        "c"
      ],
      [
        "ĠSt",
        "ubb"
      ],
      [
        "Ġw",
        "he"
      ],
      [
        "Ġcons",
        "ider"
      ],
      [
        "Ġcal",
        "led"
      ],
      [
        "Ġs",
        "ound"
      ],
      [
        "Ġf",
        "re"
      ],
      [
        "as",
        "k"
      ],
      [
        "Ġcom",
        "ing"
      ],
      [
        "ain",
        "s"
      ],
      [
        "b",
        "our"
      ],
      [
        "Ġha",
        "ving"
      ],
      [
        "ut",
        "es"
      ],
      [
        "Ġr",
        "ather"
      ],
      [
        "ee",
        "t"
      ],
      [
        "Ġwho",
        "se"
      ],
      [
        "sel",
        "ves"
      ],
      [
        "u",
        "ally"
      ],
      [
        "or",
        "n"
      ],
      [
        "an",
        "c"
      ],
      [
        "et",
        "s"
      ],
      [
        "ĠS",
        "o"
      ],
      [
        "I",
        "n"
      ],
      [
        "Ġa",
        "w"
      ],
      [
        "p",
        "re"
      ],
      [
        "s",
        "he"
      ],
      [
        "Ġt",
        "e"
      ],
      [
        "n",
        "o"
      ],
      [
        "Ġm",
        "other"
      ],
      [
        "Ġst",
        "art"
      ],
      [
        "Ġst",
        "ood"
      ],
      [
        "ent",
        "s"
      ],
      [
        "Ġre",
        "ason"
      ],
      [
        "Ġcont",
        "in"
      ],
      [
        "ar",
        "ing"
      ],
      [
        "Ġ1",
        "7"
      ],
      [
        "Ġsy",
        "stem"
      ],
      [
        "h",
        "ow"
      ],
      [
        "ri",
        "ble"
      ],
      [
        "ain",
        "t"
      ],
      [
        "Ġle",
        "ast"
      ],
      [
        "ĠN",
        "o"
      ],
      [
        "sh",
        "ip"
      ],
      [
        "Ġf",
        "ire"
      ],
      [
        "fer",
        "ence"
      ],
      [
        "Ġ",
        "ide"
      ],
      [
        "Ġg",
        "ave"
      ],
      [
        "Ġre",
        "c"
      ],
      [
        "Ġse",
        "c"
      ],
      [
        "a",
        "z"
      ],
      [
        "Ġof",
        "ten"
      ],
      [
        "Ġg",
        "u"
      ],
      [
        "co",
        "nd"
      ],
      [
        "ĠPro",
        "ject"
      ],
      [
        "Ġwith",
        "in"
      ],
      [
        "ro",
        "om"
      ],
      [
        "Ġal",
        "ong"
      ],
      [
        "Ġs",
        "ight"
      ],
      [
        "er",
        "ing"
      ],
      [
        "ĠT",
        "h"
      ],
      [
        "la",
        "d"
      ],
      [
        "pp",
        "ing"
      ],
      [
        "Ġw",
        "ish"
      ],
      [
        "Ġspe",
        "ak"
      ],
      [
        "Ġentire",
        "ly"
      ],
      [
        "Ġth",
        "ou"
      ],
      [
        "Ġcreat",
        "ed"
      ],
      [
        "M",
        "y"
      ],
      [
        "Ġin",
        "v"
      ],
      [
        "Ġp",
        "ar"
      ],
      [
        "am",
        "p"
      ],
      [
        "Ġ",
        "hat"
      ],
      [
        "Ġ1",
        "6"
      ],
      [
        "++",
        ","
      ],
      [
        "T",
        "here"
      ],
      [
        "f",
        "rom"
      ],
      [
        "it",
        "ing"
      ],
      [
        "an",
        "y"
      ],
      [
        "Ġu",
        "se"
      ],
      [
        "Ġother",
        "s"
      ],
      [
        "a",
        "id"
      ],
      [
        "i",
        "er"
      ],
      [
        "in",
        "c"
      ],
      [
        "id",
        "es"
      ],
      [
        "Ġre",
        "d"
      ],
      [
        "ĠG",
        "utenberg"
      ],
      [
        "Ġint",
        "erest"
      ],
      [
        "Ġfam",
        "ily"
      ],
      [
        "l",
        "er"
      ],
      [
        "ust",
        "om"
      ],
      [
        "f",
        "ully"
      ],
      [
        "Ġal",
        "one"
      ],
      [
        "Ġtr",
        "ans"
      ],
      [
        "Ġwhale",
        "s"
      ],
      [
        "Ġt",
        "imes"
      ],
      [
        "ar",
        "r"
      ],
      [
        "Ġe",
        "qu"
      ],
      [
        "Ġcon",
        "f"
      ],
      [
        "Ġc",
        "ol"
      ],
      [
        "Ġto",
        "gether"
      ],
      [
        "ri",
        "age"
      ],
      [
        "Ġd",
        "ro"
      ],
      [
        "Ġre",
        "s"
      ],
      [
        "Ġsh",
        "ort"
      ],
      [
        "ĠY",
        "o"
      ],
      [
        "Ġhar",
        "po"
      ],
      [
        "Ġcour",
        "se"
      ],
      [
        "_",
        "."
      ],
      [
        "f",
        "ect"
      ],
      [
        "r",
        "u"
      ],
      [
        "Ġs",
        "ens"
      ],
      [
        "Ġm",
        "ast"
      ],
      [
        "ur",
        "ning"
      ],
      [
        "w",
        "ill"
      ],
      [
        "le",
        "ase"
      ],
      [
        "Ġto",
        "ken"
      ],
      [
        "Ġn",
        "ame"
      ],
      [
        "il",
        "ity"
      ],
      [
        "ow",
        "ed"
      ],
      [
        "us",
        "ed"
      ],
      [
        "Ġlet",
        "ter"
      ],
      [
        "Ġwom",
        "an"
      ],
      [
        "E",
        "lizabeth"
      ],
      [
        "Ġs",
        "im"
      ],
      [
        "Ġb",
        "lood"
      ],
      [
        "ut",
        "h"
      ],
      [
        "Ġman",
        "ner"
      ],
      [
        "Ġstr",
        "ong"
      ],
      [
        "Ġcon",
        "c"
      ],
      [
        "Ġfee",
        "t"
      ],
      [
        "c",
        "han"
      ],
      [
        "ou",
        "ble"
      ],
      [
        "Ġb",
        "ody"
      ],
      [
        "Ġde",
        "p"
      ],
      [
        "Ġsee",
        "ms"
      ],
      [
        "Ġ",
        "ill"
      ],
      [
        "Ġb",
        "reat"
      ],
      [
        "Ġre",
        "ally"
      ],
      [
        "Ġsu",
        "ff"
      ],
      [
        "th",
        "ough"
      ],
      [
        "Ġun",
        "t"
      ],
      [
        "sol",
        "ute"
      ],
      [
        "t",
        "on"
      ],
      [
        "Ġre",
        "ady"
      ],
      [
        "ir",
        "on"
      ],
      [
        "ĠQu",
        "eequeg"
      ],
      [
        "Ġlook",
        "ing"
      ],
      [
        "is",
        "ing"
      ],
      [
        "Ġg",
        "ir"
      ],
      [
        "ĠM",
        "ina"
      ],
      [
        "ĠJ",
        "ust"
      ],
      [
        "Ġs",
        "ign"
      ],
      [
        "Ġh",
        "or"
      ],
      [
        "ick",
        "ham"
      ],
      [
        "Ġwind",
        "ow"
      ],
      [
        "Ġ",
        "âĢĻ"
      ],
      [
        "arb",
        "uck"
      ],
      [
        "udd",
        "y"
      ],
      [
        "b",
        "b"
      ],
      [
        "y",
        "d"
      ],
      [
        "Ġa",
        "ffect"
      ],
      [
        "at",
        "s"
      ],
      [
        "Ġbec",
        "ause"
      ],
      [
        "Ġf",
        "our"
      ],
      [
        "ust",
        "r"
      ],
      [
        "Ġob",
        "ser"
      ],
      [
        "N",
        "o"
      ],
      [
        "W",
        "e"
      ],
      [
        "h",
        "ind"
      ],
      [
        "Ġt",
        "urn"
      ],
      [
        "Ġwh",
        "y"
      ],
      [
        "Ġsha",
        "r"
      ],
      [
        "a",
        "le"
      ],
      [
        "s",
        "ed"
      ],
      [
        "Ġle",
        "ave"
      ],
      [
        "oll",
        "ins"
      ],
      [
        "Y",
        "es"
      ],
      [
        "Ġf",
        "ur"
      ],
      [
        "id",
        "ent"
      ],
      [
        "Ġbe",
        "aut"
      ],
      [
        "Ġpr",
        "om"
      ],
      [
        "Ġar",
        "ri"
      ],
      [
        "ĠP",
        "lease"
      ],
      [
        "Ġal",
        "ready"
      ],
      [
        "Ġsp",
        "ir"
      ],
      [
        "Ġey",
        "e"
      ],
      [
        "Ġword",
        "s"
      ],
      [
        "Ġmin",
        "utes"
      ],
      [
        "W",
        "hen"
      ],
      [
        "Ġ",
        "es"
      ],
      [
        "Ġar",
        "t"
      ],
      [
        "Ġlar",
        "ge"
      ],
      [
        "'",
        "t"
      ],
      [
        "ou",
        "th"
      ],
      [
        "Ġb",
        "uddy"
      ],
      [
        "at",
        "er"
      ],
      [
        "Ġde",
        "ck"
      ],
      [
        "ĠHe",
        "y"
      ],
      [
        "Ġtr",
        "ue"
      ],
      [
        "al",
        "ked"
      ],
      [
        "ĠC",
        "aptain"
      ],
      [
        "Ġwe",
        "ather"
      ],
      [
        "Ġfa",
        "ct"
      ],
      [
        "ond",
        "on"
      ],
      [
        "Ġm",
        "ad"
      ],
      [
        "Ġe",
        "as"
      ],
      [
        "Ġth",
        "us"
      ],
      [
        "Ġde",
        "v"
      ],
      [
        "Ġli",
        "ve"
      ],
      [
        "ac",
        "hed"
      ],
      [
        "ie",
        "w"
      ],
      [
        "Ġspe",
        "c"
      ],
      [
        "u",
        "ed"
      ],
      [
        "Ġst",
        "ream"
      ],
      [
        "Ġas",
        "k"
      ],
      [
        "ĠA",
        "ll"
      ],
      [
        "Ġsee",
        "m"
      ],
      [
        "Ġ4",
        "0"
      ],
      [
        "Ġw",
        "ood"
      ],
      [
        "Ġw",
        "ild"
      ],
      [
        "Ġd",
        "ri"
      ],
      [
        "Ġatt",
        "ention"
      ],
      [
        "fess",
        "or"
      ],
      [
        "Ġbus",
        "iness"
      ],
      [
        "t",
        "ers"
      ],
      [
        "it",
        "ude"
      ],
      [
        "Ġst",
        "re"
      ],
      [
        "ĠC",
        "ount"
      ],
      [
        "ĠA",
        "l"
      ],
      [
        "Ġ2",
        "4"
      ],
      [
        "d",
        "is"
      ],
      [
        "s",
        "ome"
      ],
      [
        "Ġt",
        "aken"
      ],
      [
        "Ġa",
        "ff"
      ],
      [
        "Ġf",
        "ive"
      ],
      [
        "Ġp",
        "ower"
      ],
      [
        "ic",
        "ally"
      ],
      [
        "Ġkn",
        "own"
      ],
      [
        "Ġ2",
        "8"
      ],
      [
        "em",
        "pt"
      ],
      [
        "Ġhapp",
        "y"
      ],
      [
        "w",
        "hen"
      ],
      [
        "Ġb",
        "right"
      ],
      [
        "is",
        "f"
      ],
      [
        "Ġin",
        "f"
      ],
      [
        "Ġn",
        "ext"
      ],
      [
        "Ġfor",
        "m"
      ],
      [
        "Ġsou",
        "l"
      ],
      [
        "Ġt",
        "ri"
      ],
      [
        "ĠB",
        "e"
      ],
      [
        "Ġsp",
        "oke"
      ],
      [
        "po",
        "ss"
      ],
      [
        "d",
        "o"
      ],
      [
        "s",
        "ide"
      ],
      [
        "id",
        "ed"
      ],
      [
        "al",
        "s"
      ],
      [
        "Ġex",
        "cept"
      ],
      [
        "Ġ2",
        "6"
      ],
      [
        "Ġwr",
        "ite"
      ],
      [
        "0",
        "0"
      ],
      [
        "b",
        "and"
      ],
      [
        "l",
        "ong"
      ],
      [
        "p",
        "y"
      ],
      [
        "Ġe",
        "arth"
      ],
      [
        "Ġst",
        "ri"
      ],
      [
        "Ġfo",
        "od"
      ],
      [
        "Ġ9",
        "6"
      ],
      [
        "Ġevery",
        "thing"
      ],
      [
        ",",
        "âĢĻ"
      ],
      [
        "it",
        "ies"
      ],
      [
        "Ġlo",
        "ss"
      ],
      [
        "ĠO",
        "h"
      ],
      [
        "Ġpre",
        "v"
      ],
      [
        "Ġco",
        "nd"
      ],
      [
        "Ġwhe",
        "ther"
      ],
      [
        "qu",
        "od"
      ],
      [
        "Ġse",
        "ver"
      ],
      [
        "Ġpart",
        "ic"
      ],
      [
        "Ġpers",
        "on"
      ],
      [
        "ĠT",
        "hat"
      ],
      [
        "Ġg",
        "lo"
      ],
      [
        "ous",
        "and"
      ],
      [
        "Ġbu",
        "ild"
      ],
      [
        "Ġgiv",
        "en"
      ],
      [
        "Ġs",
        "ing"
      ],
      [
        "orr",
        "ow"
      ],
      [
        "._",
        "--"
      ],
      [
        "Ġvo",
        "ice"
      ],
      [
        "Ġt",
        "ou"
      ],
      [
        "Ġt",
        "alk"
      ],
      [
        "ĠC",
        "ollins"
      ],
      [
        "Ġ1",
        "9"
      ],
      [
        "ĠL",
        "ondon"
      ],
      [
        "Ġcha",
        "r"
      ],
      [
        "Ġmean",
        "ing"
      ],
      [
        "yd",
        "ia"
      ],
      [
        "t",
        "r"
      ],
      [
        "w",
        "ere"
      ],
      [
        "Ġl",
        "ady"
      ],
      [
        "Ġme",
        "et"
      ],
      [
        "us",
        "hed"
      ],
      [
        "Ġide",
        "a"
      ],
      [
        "Ġl",
        "ad"
      ],
      [
        "Ġme",
        "ans"
      ],
      [
        "the",
        "m"
      ],
      [
        "ak",
        "es"
      ],
      [
        "Ġen",
        "g"
      ],
      [
        "ĠSt",
        "arbuck"
      ],
      [
        "Ġwork",
        "s"
      ],
      [
        "T",
        "his"
      ],
      [
        "ĠW",
        "ickham"
      ],
      [
        "Ġlo",
        "st"
      ],
      [
        "ra",
        "ph"
      ],
      [
        "Ġus",
        "ing"
      ],
      [
        "Ġret",
        "urn"
      ],
      [
        "Ġnat",
        "ural"
      ],
      [
        "a",
        "h"
      ],
      [
        "Ġm",
        "ode"
      ],
      [
        "Ġh",
        "ur"
      ],
      [
        "th",
        "ur"
      ],
      [
        "itt",
        "ed"
      ],
      [
        "Ġcount",
        "ry"
      ],
      [
        "u",
        "ff"
      ],
      [
        "Ġc",
        "ustom"
      ],
      [
        "Ġex",
        "c"
      ],
      [
        "ard",
        "s"
      ],
      [
        "Ġ2",
        "7"
      ],
      [
        "itt",
        "ing"
      ],
      [
        "b",
        "ed"
      ],
      [
        "e",
        "ad"
      ],
      [
        "en",
        "e"
      ],
      [
        "Ġc",
        "ross"
      ],
      [
        "Ġp",
        "ain"
      ],
      [
        "li",
        "ar"
      ],
      [
        "ag",
        "ed"
      ],
      [
        "ĠN",
        "ot"
      ],
      [
        "Ġbr",
        "ought"
      ],
      [
        ",",
        "--"
      ],
      [
        "w",
        "ould"
      ],
      [
        "in",
        "ct"
      ],
      [
        "ou",
        "n"
      ],
      [
        "ha",
        "nd"
      ],
      [
        "Ġd",
        "aught"
      ],
      [
        "Ġthere",
        "fore"
      ],
      [
        "Ġcomm",
        "and"
      ],
      [
        "bo",
        "ard"
      ],
      [
        "Ġe",
        "ither"
      ],
      [
        "Ġcon",
        "vers"
      ],
      [
        "us",
        "band"
      ],
      [
        "Ġsub",
        "ject"
      ],
      [
        "gr",
        "am"
      ],
      [
        "Ġadv",
        "ice"
      ],
      [
        "f",
        "ic"
      ],
      [
        "le",
        "n"
      ],
      [
        "ll",
        "ustr"
      ],
      [
        "Ġre",
        "al"
      ],
      [
        "led",
        "ge"
      ],
      [
        "Ġ2",
        "2"
      ],
      [
        "ious",
        "ly"
      ],
      [
        "Ġansw",
        "ered"
      ],
      [
        "Ġbec",
        "ame"
      ],
      [
        "Ġposs",
        "ible"
      ],
      [
        "Ġfell",
        "ow"
      ],
      [
        "W",
        "ell"
      ],
      [
        "Ġc",
        "ut"
      ],
      [
        "Ġl",
        "au"
      ],
      [
        "Ġre",
        "l"
      ],
      [
        "Ġle",
        "g"
      ],
      [
        "ĠE",
        "ng"
      ],
      [
        "Ġ5",
        "9"
      ],
      [
        "Ġad",
        "m"
      ],
      [
        "for",
        "m"
      ],
      [
        "Ġsomet",
        "imes"
      ],
      [
        "Ġappe",
        "ar"
      ],
      [
        "Ġunt",
        "il"
      ],
      [
        "p",
        "ose"
      ],
      [
        "Ġt",
        "ra"
      ],
      [
        "Ġs",
        "ent"
      ],
      [
        "Ġw",
        "ife"
      ],
      [
        "ir",
        "d"
      ],
      [
        "av",
        "ing"
      ],
      [
        "av",
        "es"
      ],
      [
        "Ġ8",
        "1"
      ],
      [
        "Ġhard",
        "ly"
      ],
      [
        "ix",
        "ed"
      ],
      [
        "I",
        "llustr"
      ],
      [
        "o",
        "ld"
      ],
      [
        "Ġbe",
        "hind"
      ],
      [
        "ĠL",
        "ady"
      ],
      [
        "Ġgr",
        "ound"
      ],
      [
        "Ġsur",
        "pr"
      ],
      [
        "Illustr",
        "ation"
      ],
      [
        "S",
        "he"
      ],
      [
        "Ġm",
        "ur"
      ],
      [
        "Ġm",
        "ist"
      ],
      [
        "as",
        "ion"
      ],
      [
        "ĠD",
        "r"
      ],
      [
        "Ġeven",
        "ing"
      ],
      [
        "ne",
        "y"
      ],
      [
        "Ġfriend",
        "s"
      ],
      [
        "fer",
        "ent"
      ],
      [
        "Ġacc",
        "ount"
      ],
      [
        "iet",
        "y"
      ],
      [
        "j",
        "oy"
      ],
      [
        "Ġb",
        "ur"
      ],
      [
        "Ġp",
        "at"
      ],
      [
        "ĠW",
        "h"
      ],
      [
        "Ġlin",
        "e"
      ],
      [
        "Ġ6",
        "9"
      ],
      [
        "Ġ3",
        "2"
      ],
      [
        "Ġ5",
        "7"
      ],
      [
        "Ġrep",
        "lied"
      ],
      [
        "c",
        "le"
      ],
      [
        "g",
        "ing"
      ],
      [
        "u",
        "nder"
      ],
      [
        "Ġf",
        "in"
      ],
      [
        "ch",
        "o"
      ],
      [
        "Ġse",
        "cond"
      ],
      [
        "Ġ6",
        "2"
      ],
      [
        "ark",
        "er"
      ],
      [
        "Ġbre",
        "aking"
      ],
      [
        "in",
        "ation"
      ],
      [
        "um",
        "st"
      ],
      [
        "Ġ5",
        "0"
      ],
      [
        "Ġsupp",
        "ose"
      ],
      [
        "Ġwar",
        "m"
      ],
      [
        "ĠJon",
        "athan"
      ],
      [
        "ĠPe",
        "quod"
      ],
      [
        "A",
        "s"
      ],
      [
        "T",
        "hat"
      ],
      [
        "s",
        "pe"
      ],
      [
        "Ġd",
        "at"
      ],
      [
        "Ġar",
        "m"
      ],
      [
        "Ġ2",
        "3"
      ],
      [
        "Ġ6",
        "8"
      ],
      [
        "Ġdis",
        "co"
      ],
      [
        "Ġnat",
        "ure"
      ],
      [
        "Ġel",
        "se"
      ],
      [
        "g",
        "er"
      ],
      [
        "o",
        "h"
      ],
      [
        "o",
        "ver"
      ],
      [
        "u",
        "c"
      ],
      [
        "Ġo",
        "pp"
      ],
      [
        "Ġim",
        "ag"
      ],
      [
        "Ġ2",
        "5"
      ],
      [
        "Ġ9",
        "7"
      ],
      [
        "Ġsw",
        "eet"
      ],
      [
        "c",
        "ause"
      ],
      [
        "m",
        "o"
      ],
      [
        "le",
        "g"
      ],
      [
        "Ġf",
        "ree"
      ],
      [
        "ee",
        "l"
      ],
      [
        "ef",
        "ore"
      ],
      [
        "ĠL",
        "ydia"
      ],
      [
        "Ġ6",
        "4"
      ],
      [
        "Ġ4",
        "2"
      ],
      [
        "Ġab",
        "solute"
      ],
      [
        "Ġrem",
        "ember"
      ],
      [
        "ĠPro",
        "fessor"
      ],
      [
        "g",
        "u"
      ],
      [
        "Ġqu",
        "iet"
      ],
      [
        "Ġ6",
        "5"
      ],
      [
        "Ġ8",
        "4"
      ],
      [
        "Ġvis",
        "it"
      ],
      [
        "Ġj",
        "o"
      ],
      [
        "Ġ6",
        "7"
      ],
      [
        "Ġ3",
        "1"
      ],
      [
        "Ġ7",
        "2"
      ],
      [
        "Ġopen",
        "ed"
      ],
      [
        "Ġbre",
        "ak"
      ],
      [
        "T",
        "hen"
      ],
      [
        "Ġto",
        "wn"
      ],
      [
        "se",
        "t"
      ],
      [
        "Ġle",
        "ngth"
      ],
      [
        "ĠO",
        "n"
      ],
      [
        "Ġ6",
        "3"
      ],
      [
        "Ġ6",
        "6"
      ],
      [
        "Ġ9",
        "5"
      ],
      [
        "Ġco",
        "ld"
      ],
      [
        "Ġsudden",
        "ly"
      ],
      [
        "i",
        "o"
      ],
      [
        "k",
        "ing"
      ],
      [
        "Ġm",
        "ere"
      ],
      [
        "Ġc",
        "hat"
      ],
      [
        "Ġ3",
        "4"
      ],
      [
        "Ġ7",
        "9"
      ],
      [
        "Ġfeel",
        "ings"
      ],
      [
        "c",
        "an"
      ],
      [
        "y",
        "our"
      ],
      [
        "Ġ6",
        "0"
      ],
      [
        "Ġ4",
        "8"
      ],
      [
        "ather",
        "ine"
      ],
      [
        "Ġcertain",
        "ly"
      ],
      [
        "b",
        "ody"
      ],
      [
        "c",
        "ould"
      ],
      [
        "c",
        "ome"
      ],
      [
        "Ġc",
        "rew"
      ],
      [
        "Ġd",
        "uring"
      ],
      [
        "ot",
        "ion"
      ],
      [
        "end",
        "ing"
      ],
      [
        "ter",
        "n"
      ],
      [
        "Ġ4",
        "3"
      ]
    ]
  }
}